{
    "0": "\u0000",
    "1": "\u0001",
    "2": "\u0002",
    "3": "\u0003",
    "4": "\u0004",
    "5": "\u0005",
    "6": "\u0006",
    "7": "\u0007",
    "8": "\b",
    "9": "\t",
    "10": "\n",
    "11": "\u000b",
    "12": "\f",
    "13": "\r",
    "14": "\u000e",
    "15": "\u000f",
    "16": "\u0010",
    "17": "\u0011",
    "18": "\u0012",
    "19": "\u0013",
    "20": "\u0014",
    "21": "\u0015",
    "22": "\u0016",
    "23": "\u0017",
    "24": "\u0018",
    "25": "\u0019",
    "26": "\u001a",
    "27": "\u001b",
    "28": "\u001c",
    "29": "\u001d",
    "30": "\u001e",
    "31": "\u001f",
    "32": " ",
    "33": "!",
    "34": "\"",
    "35": "#",
    "36": "$",
    "37": "%",
    "38": "&",
    "39": "'",
    "40": "(",
    "41": ")",
    "42": "*",
    "43": "+",
    "44": ",",
    "45": "-",
    "46": ".",
    "47": "/",
    "48": "0",
    "49": "1",
    "50": "2",
    "51": "3",
    "52": "4",
    "53": "5",
    "54": "6",
    "55": "7",
    "56": "8",
    "57": "9",
    "58": ":",
    "59": ";",
    "60": "<",
    "61": "=",
    "62": ">",
    "63": "?",
    "64": "@",
    "65": "A",
    "66": "B",
    "67": "C",
    "68": "D",
    "69": "E",
    "70": "F",
    "71": "G",
    "72": "H",
    "73": "I",
    "74": "J",
    "75": "K",
    "76": "L",
    "77": "M",
    "78": "N",
    "79": "O",
    "80": "P",
    "81": "Q",
    "82": "R",
    "83": "S",
    "84": "T",
    "85": "U",
    "86": "V",
    "87": "W",
    "88": "X",
    "89": "Y",
    "90": "Z",
    "91": "[",
    "92": "\\",
    "93": "]",
    "94": "^",
    "95": "_",
    "96": "`",
    "97": "a",
    "98": "b",
    "99": "c",
    "100": "d",
    "101": "e",
    "102": "f",
    "103": "g",
    "104": "h",
    "105": "i",
    "106": "j",
    "107": "k",
    "108": "l",
    "109": "m",
    "110": "n",
    "111": "o",
    "112": "p",
    "113": "q",
    "114": "r",
    "115": "s",
    "116": "t",
    "117": "u",
    "118": "v",
    "119": "w",
    "120": "x",
    "121": "y",
    "122": "z",
    "123": "{",
    "124": "|",
    "125": "}",
    "126": "~",
    "127": "",
    "128": "",
    "129": "",
    "130": "",
    "131": "",
    "132": "",
    "133": "",
    "134": "",
    "135": "",
    "136": "",
    "137": "",
    "138": "",
    "139": "",
    "140": "",
    "141": "",
    "142": "",
    "143": "",
    "144": "",
    "145": "",
    "146": "",
    "147": "",
    "148": "",
    "149": "",
    "150": "",
    "151": "",
    "152": "",
    "153": "",
    "154": "",
    "155": "",
    "156": "",
    "157": "",
    "158": "",
    "159": "",
    "160": " ",
    "161": "¡",
    "162": "¢",
    "163": "£",
    "164": "¤",
    "165": "¥",
    "166": "¦",
    "167": "§",
    "168": "¨",
    "169": "©",
    "170": "ª",
    "171": "«",
    "172": "¬",
    "173": "­",
    "174": "®",
    "175": "¯",
    "176": "°",
    "177": "±",
    "178": "²",
    "179": "³",
    "180": "´",
    "181": "µ",
    "182": "¶",
    "183": "·",
    "184": "¸",
    "185": "¹",
    "186": "º",
    "187": "»",
    "188": "¼",
    "189": "½",
    "190": "¾",
    "191": "¿",
    "192": "À",
    "193": "Á",
    "194": "Â",
    "195": "Ã",
    "196": "Ä",
    "197": "Å",
    "198": "Æ",
    "199": "Ç",
    "200": "È",
    "201": "É",
    "202": "Ê",
    "203": "Ë",
    "204": "Ì",
    "205": "Í",
    "206": "Î",
    "207": "Ï",
    "208": "Ð",
    "209": "Ñ",
    "210": "Ò",
    "211": "Ó",
    "212": "Ô",
    "213": "Õ",
    "214": "Ö",
    "215": "×",
    "216": "Ø",
    "217": "Ù",
    "218": "Ú",
    "219": "Û",
    "220": "Ü",
    "221": "Ý",
    "222": "Þ",
    "223": "ß",
    "224": "à",
    "225": "á",
    "226": "â",
    "227": "ã",
    "228": "ä",
    "229": "å",
    "230": "æ",
    "231": "ç",
    "232": "è",
    "233": "é",
    "234": "ê",
    "235": "ë",
    "236": "ì",
    "237": "í",
    "238": "î",
    "239": "ï",
    "240": "ð",
    "241": "ñ",
    "242": "ò",
    "243": "ó",
    "244": "ô",
    "245": "õ",
    "246": "ö",
    "247": "÷",
    "248": "ø",
    "249": "ù",
    "250": "ú",
    "251": "û",
    "252": "ü",
    "253": "ý",
    "254": "þ",
    "255": "ÿ",
    "256": "<|endoftext|>",
    "257": " t",
    "258": " a",
    "259": "he",
    "260": "in",
    "261": "re",
    "262": " the",
    "263": "on",
    "264": "er",
    "265": " s",
    "266": " w",
    "267": "at",
    "268": " o",
    "269": "en",
    "270": " c",
    "271": "it",
    "272": "is",
    "273": "an",
    "274": "or",
    "275": " b",
    "276": "es",
    "277": "ed",
    "278": " f",
    "279": "ing",
    "280": " p",
    "281": "ou",
    "282": " an",
    "283": "al",
    "284": " to",
    "285": "ar",
    "286": " m",
    "287": " in",
    "288": " of",
    "289": " h",
    "290": " d",
    "291": "â",
    "292": "as",
    "293": "ic",
    "294": " and",
    "295": " th",
    "296": "le",
    "297": "om",
    "298": "ion",
    "299": "ll",
    "300": "ent",
    "301": " n",
    "302": " l",
    "303": " re",
    "304": "st",
    "305": "ve",
    "306": " e",
    "307": "ly",
    "308": "ro",
    "309": " be",
    "310": " g",
    "311": "id",
    "312": "ut",
    "313": "ac",
    "314": "ot",
    "315": " T",
    "316": " I",
    "317": " that",
    "318": " on",
    "319": "ay",
    "320": " S",
    "321": " is",
    "322": "et",
    "323": "im",
    "324": "am",
    "325": "ad",
    "326": "ow",
    "327": "se",
    "328": "ig",
    "329": " for",
    "330": "â",
    "331": " A",
    "332": "ver",
    "333": "ur",
    "334": "ct",
    "335": "ld",
    "336": " C",
    "337": " u",
    "338": " st",
    "339": " y",
    "340": " it",
    "341": " he",
    "342": "ir",
    "343": "ation",
    "344": "ith",
    "345": " wh",
    "346": " M",
    "347": "ce",
    "348": "ter",
    "349": "ol",
    "350": " we",
    "351": "il",
    "352": " with",
    "353": " as",
    "354": " B",
    "355": "ch",
    "356": "ill",
    "357": "nd",
    "358": " P",
    "359": " was",
    "360": "ers",
    "361": " you",
    "362": "ke",
    "363": " â",
    "364": " con",
    "365": " de",
    "366": " r",
    "367": "her",
    "368": "if",
    "369": "ate",
    "370": "ag",
    "371": " at",
    "372": " ha",
    "373": " W",
    "374": " se",
    "375": " H",
    "376": "ore",
    "377": " pro",
    "378": "ul",
    "379": "pp",
    "380": "ment",
    "381": "ri",
    "382": " are",
    "383": " D",
    "384": " 1",
    "385": "us",
    "386": "est",
    "387": "ist",
    "388": " com",
    "389": "and",
    "390": " R",
    "391": "op",
    "392": "ain",
    "393": " The",
    "394": " 2",
    "395": "igh",
    "396": "rom",
    "397": " (",
    "398": "ort",
    "399": "od",
    "400": " ne",
    "401": " F",
    "402": "um",
    "403": "un",
    "404": " ex",
    "405": "res",
    "406": "ab",
    "407": "â",
    "408": " not",
    "409": " N",
    "410": " v",
    "411": "ess",
    "412": " have",
    "413": "ity",
    "414": "em",
    "415": "ould",
    "416": " or",
    "417": "th",
    "418": " by",
    "419": "os",
    "420": "ant",
    "421": " G",
    "422": "ive",
    "423": " from",
    "424": " al",
    "425": "el",
    "426": "'s",
    "427": "oc",
    "428": "art",
    "429": " su",
    "430": " L",
    "431": " sh",
    "432": " this",
    "433": "nt",
    "434": "qu",
    "435": "ight",
    "436": "pe",
    "437": "ust",
    "438": " le",
    "439": "ies",
    "440": " E",
    "441": "end",
    "442": " ch",
    "443": " sa",
    "444": "out",
    "445": " ab",
    "446": "The",
    "447": "all",
    "448": "ie",
    "449": "ack",
    "450": "red",
    "451": "00",
    "452": " â",
    "453": " has",
    "454": "ally",
    "455": " J",
    "456": " pl",
    "457": " go",
    "458": "ard",
    "459": "iv",
    "460": " his",
    "461": "ome",
    "462": "ap",
    "463": "ost",
    "464": "gh",
    "465": "ear",
    "466": " O",
    "467": " tr",
    "468": "our",
    "469": "ast",
    "470": " j",
    "471": "ak",
    "472": "ud",
    "473": " do",
    "474": " they",
    "475": " but",
    "476": " wor",
    "477": "rou",
    "478": " can",
    "479": "ge",
    "480": " will",
    "481": " said",
    "482": " whe",
    "483": " U",
    "484": " k",
    "485": "ich",
    "486": " all",
    "487": "ok",
    "488": " \"",
    "489": "ide",
    "490": " who",
    "491": " int",
    "492": "ame",
    "493": "ans",
    "494": "ther",
    "495": "ial",
    "496": " out",
    "497": "ff",
    "498": " their",
    "499": "ong",
    "500": "ect",
    "501": "pl",
    "502": "ice",
    "503": "ure",
    "504": "pt",
    "505": "one",
    "506": " more",
    "507": "age",
    "508": "ions",
    "509": "act",
    "510": "ike",
    "511": " me",
    "512": " up",
    "513": "ous",
    "514": "ine",
    "515": " ad",
    "516": " about",
    "517": "ated",
    "518": "ra",
    "519": "ber",
    "520": " one",
    "521": " were",
    "522": " so",
    "523": " us",
    "524": "ime",
    "525": "og",
    "526": " K",
    "527": "ep",
    "528": "ia",
    "529": " had",
    "530": "are",
    "531": "ub",
    "532": "cc",
    "533": " would",
    "534": " cl",
    "535": " 20",
    "536": " im",
    "537": " which",
    "538": "ind",
    "539": "ue",
    "540": "ake",
    "541": " cont",
    "542": "iz",
    "543": "very",
    "544": " ag",
    "545": " te",
    "546": " off",
    "547": " comp",
    "548": " un",
    "549": " been",
    "550": " St",
    "551": "so",
    "552": " en",
    "553": "per",
    "554": "ign",
    "555": "au",
    "556": " Th",
    "557": "ary",
    "558": "ace",
    "559": " year",
    "560": "ip",
    "561": "ew",
    "562": " like",
    "563": "ere",
    "564": "ven",
    "565": "ook",
    "566": " inc",
    "567": "ays",
    "568": " man",
    "569": " pe",
    "570": "ry",
    "571": "ose",
    "572": " res",
    "573": "able",
    "574": "ite",
    "575": " per",
    "576": "ass",
    "577": "ord",
    "578": " sp",
    "579": "ire",
    "580": " In",
    "581": " other",
    "582": "mer",
    "583": " some",
    "584": "ile",
    "585": "ib",
    "586": "ence",
    "587": "ople",
    "588": " 201",
    "589": "ks",
    "590": "ations",
    "591": " over",
    "592": "ical",
    "593": " there",
    "594": "ress",
    "595": " dis",
    "596": "ult",
    "597": "int",
    "598": " new",
    "599": "own",
    "600": " also",
    "601": " than",
    "602": " ar",
    "603": " bec",
    "604": "ru",
    "605": " them",
    "606": "ance",
    "607": "ount",
    "608": "ough",
    "609": " app",
    "610": "port",
    "611": "ail",
    "612": " part",
    "613": " your",
    "614": " when",
    "615": "ree",
    "616": " what",
    "617": "orm",
    "618": "ond",
    "619": " people",
    "620": "fter",
    "621": " sc",
    "622": " Ch",
    "623": "av",
    "624": "ase",
    "625": " qu",
    "626": " any",
    "627": " just",
    "628": " its",
    "629": " Y",
    "630": "ach",
    "631": " time",
    "632": " It",
    "633": " kn",
    "634": " her",
    "635": " 3",
    "636": "ens",
    "637": "lic",
    "638": " rec",
    "639": "reat",
    "640": " my",
    "641": " get",
    "642": " if",
    "643": " V",
    "644": "ian",
    "645": ".â",
    "646": " into",
    "647": "ound",
    "648": " work",
    "649": " tw",
    "650": "irst",
    "651": "vel",
    "652": "ction",
    "653": " no",
    "654": "du",
    "655": "ings",
    "656": "ory",
    "657": "ick",
    "658": "ors",
    "659": " our",
    "660": "ition",
    "661": "ident",
    "662": "ob",
    "663": " -",
    "664": " pre",
    "665": "ove",
    "666": " play",
    "667": "ang",
    "668": "ink",
    "669": "ause",
    "670": "wn",
    "671": "te",
    "672": "amp",
    "673": "ade",
    "674": "hing",
    "675": "ates",
    "676": "ark",
    "677": " ro",
    "678": " pol",
    "679": " she",
    "680": "vers",
    "681": " co",
    "682": ",â",
    "683": " after",
    "684": "ne",
    "685": " first",
    "686": " could",
    "687": " how",
    "688": " He",
    "689": " 19",
    "690": "ious",
    "691": "nder",
    "692": "ild",
    "693": " acc",
    "694": " him",
    "695": "aw",
    "696": "'t",
    "697": "ons",
    "698": " po",
    "699": " only",
    "700": " fe",
    "701": " att",
    "702": "ict",
    "703": "hed",
    "704": " pr",
    "705": " two",
    "706": "rit",
    "707": "ov",
    "708": "ish",
    "709": " comm",
    "710": "â",
    "711": "form",
    "712": " spe",
    "713": " act",
    "714": "we",
    "715": "erv",
    "716": " bl",
    "717": "ft",
    "718": " bet",
    "719": " dec",
    "720": ".\"",
    "721": "ning",
    "722": " back",
    "723": " most",
    "724": "ces",
    "725": "ood",
    "726": "ck",
    "727": " â",
    "728": " am",
    "729": "oy",
    "730": " did",
    "731": "rough",
    "732": "iff",
    "733": "ater",
    "734": "round",
    "735": " again",
    "736": " 4",
    "737": "ual",
    "738": "day",
    "739": "ise",
    "740": " under",
    "741": " des",
    "742": " want",
    "743": "ull",
    "744": "sel",
    "745": " cons",
    "746": " â",
    "747": "..",
    "748": " because",
    "749": " now",
    "750": "lud",
    "751": "ents",
    "752": " years",
    "753": "man",
    "754": "tern",
    "755": "ublic",
    "756": "ec",
    "757": " need",
    "758": " even",
    "759": " $",
    "760": "iss",
    "761": " inv",
    "762": " know",
    "763": " We",
    "764": " see",
    "765": "ments",
    "766": "ced",
    "767": " add",
    "768": ",\"",
    "769": "ting",
    "770": "old",
    "771": " ind",
    "772": " sec",
    "773": "fore",
    "774": "uch",
    "775": " every",
    "776": "urn",
    "777": " 5",
    "778": " supp",
    "779": " make",
    "780": "pect",
    "781": " Un",
    "782": " em",
    "783": " these",
    "784": "ock",
    "785": "oll",
    "786": " where",
    "787": "ject",
    "788": "In",
    "789": "ational",
    "790": "vern",
    "791": "xt",
    "792": " bu",
    "793": " look",
    "794": "Th",
    "795": " And",
    "796": "oss",
    "797": " don",
    "798": " ev",
    "799": "ump",
    "800": "ating",
    "801": " way",
    "802": " being",
    "803": " rem",
    "804": " right",
    "805": "ily",
    "806": " may",
    "807": "ng",
    "808": "row",
    "809": "lect",
    "810": "iew",
    "811": " then",
    "812": " many",
    "813": " [",
    "814": " diff",
    "815": " def",
    "816": "ason",
    "817": " rel",
    "818": " call",
    "819": " But",
    "820": " Tr",
    "821": "ont",
    "822": "ied",
    "823": "les",
    "824": "ased",
    "825": " includ",
    "826": " think",
    "827": "aking",
    "828": " reg",
    "829": ").",
    "830": "meric",
    "831": " imp",
    "832": " through",
    "833": "ath",
    "834": "ited",
    "835": "rib",
    "836": " sy",
    "837": " should",
    "838": " pres",
    "839": " say",
    "840": "ell",
    "841": " fl",
    "842": "uring",
    "843": " last",
    "844": " those",
    "845": "ower",
    "846": " very",
    "847": "ty",
    "848": "other",
    "849": " much",
    "850": "ities",
    "851": "ific",
    "852": " state",
    "853": " This",
    "854": "ative",
    "855": " show",
    "856": "tle",
    "857": "hen",
    "858": " br",
    "859": "ss",
    "860": "arg",
    "861": " well",
    "862": "oth",
    "863": " ph",
    "864": " Wh",
    "865": " count",
    "866": "als",
    "867": "und",
    "868": " 200",
    "869": " does",
    "870": " down",
    "871": " own",
    "872": "arly",
    "873": " end",
    "874": " ass",
    "875": " bel",
    "876": " use",
    "877": "ics",
    "878": "ange",
    "879": "--",
    "880": "ts",
    "881": " long",
    "882": " Americ",
    "883": "ters",
    "884": "ince",
    "885": " before",
    "886": "omet",
    "887": "gr",
    "888": " mon",
    "889": "ward",
    "890": " govern",
    "891": " start",
    "892": " report",
    "893": "ible",
    "894": " ke",
    "895": "up",
    "896": "ues",
    "897": " New",
    "898": " fin",
    "899": " team",
    "900": "ble",
    "901": " made",
    "902": "ife",
    "903": "olog",
    "904": "ener",
    "905": "),",
    "906": " such",
    "907": "ren",
    "908": "com",
    "909": "oun",
    "910": "erson",
    "911": "ek",
    "912": "ix",
    "913": " sm",
    "914": "â",
    "915": "lp",
    "916": "ility",
    "917": " going",
    "918": "ism",
    "919": "ful",
    "920": " world",
    "921": "ually",
    "922": " stud",
    "923": "ists",
    "924": " good",
    "925": " ac",
    "926": "tain",
    "927": "It",
    "928": " sub",
    "929": " eff",
    "930": " sur",
    "931": " against",
    "932": "its",
    "933": " game",
    "934": " set",
    "935": "ork",
    "936": " 6",
    "937": " gu",
    "938": " point",
    "939": " ent",
    "940": "000",
    "941": "ys",
    "942": "gan",
    "943": "ars",
    "944": "li",
    "945": "stem",
    "946": " prov",
    "947": " still",
    "948": "roup",
    "949": " while",
    "950": "illion",
    "951": " help",
    "952": " lead",
    "953": " min",
    "954": "ween",
    "955": "ef",
    "956": "ax",
    "957": "ank",
    "958": "alk",
    "959": "imes",
    "960": " says",
    "961": " ob",
    "962": "ms",
    "963": "cy",
    "964": " produ",
    "965": " gr",
    "966": " inter",
    "967": " inst",
    "968": " str",
    "969": "cess",
    "970": " sim",
    "971": "io",
    "972": "self",
    "973": " conf",
    "974": " col",
    "975": " take",
    "976": "ures",
    "977": "arch",
    "978": " same",
    "979": " though",
    "980": " between",
    "981": "ollow",
    "982": " offic",
    "983": "ever",
    "984": " cr",
    "985": " differe",
    "986": "ool",
    "987": "uss",
    "988": "ution",
    "989": "land",
    "990": " disc",
    "991": "air",
    "992": " op",
    "993": "ah",
    "994": " ed",
    "995": " high",
    "996": "read",
    "997": " num",
    "998": " law",
    "999": " sign",
    "1000": "way",
    "1001": " government",
    "1002": "gg",
    "1003": " Re",
    "1004": "led",
    "1005": "ner",
    "1006": "hip",
    "1007": "atch",
    "1008": "hes",
    "1009": "ames",
    "1010": "any",
    "1011": " ter",
    "1012": " somet",
    "1013": "cent",
    "1014": "velop",
    "1015": "ted",
    "1016": "We",
    "1017": " ref",
    "1018": " trans",
    "1019": "ten",
    "1020": " ins",
    "1021": " run",
    "1022": " ser",
    "1023": " found",
    "1024": " three",
    "1025": "ives",
    "1026": "ave",
    "1027": " mem",
    "1028": " around",
    "1029": " here",
    "1030": "ather",
    "1031": " med",
    "1032": " real",
    "1033": " used",
    "1034": "ouse",
    "1035": " 10",
    "1036": "ved",
    "1037": " exp",
    "1038": "az",
    "1039": " Ar",
    "1040": "cept",
    "1041": "oot",
    "1042": " system",
    "1043": " You",
    "1044": "ci",
    "1045": " really",
    "1046": " mod",
    "1047": "ving",
    "1048": "con",
    "1049": "cer",
    "1050": " group",
    "1051": " support",
    "1052": " 7",
    "1053": " cour",
    "1054": "ets",
    "1055": "ale",
    "1056": "ins",
    "1057": " ret",
    "1058": " hand",
    "1059": " public",
    "1060": " spec",
    "1061": "pr",
    "1062": " Le",
    "1063": "ying",
    "1064": " great",
    "1065": " car",
    "1066": "ense",
    "1067": " ext",
    "1068": ".[",
    "1069": "ton",
    "1070": "irect",
    "1071": " cur",
    "1072": " fam",
    "1073": " Com",
    "1074": "alth",
    "1075": " happ",
    "1076": " fact",
    "1077": "ph",
    "1078": " exper",
    "1079": " They",
    "1080": " Trump",
    "1081": " fr",
    "1082": " wom",
    "1083": " Is",
    "1084": " cap",
    "1085": " both",
    "1086": " day",
    "1087": " find",
    "1088": " Al",
    "1089": "ular",
    "1090": " read",
    "1091": "ines",
    "1092": "oh",
    "1093": "ices",
    "1094": " det",
    "1095": " lit",
    "1096": " sl",
    "1097": " rep",
    "1098": "uth",
    "1099": "ered",
    "1100": " during",
    "1101": " Sh",
    "1102": " As",
    "1103": " 0",
    "1104": " serv",
    "1105": " month",
    "1106": "min",
    "1107": "the",
    "1108": "ision",
    "1109": " cre",
    "1110": " develop",
    "1111": " big",
    "1112": " 8",
    "1113": " person",
    "1114": "akes",
    "1115": " follow",
    "1116": " Cl",
    "1117": " iss",
    "1118": "ex",
    "1119": " told",
    "1120": " since",
    "1121": "ared",
    "1122": "med",
    "1123": "ically",
    "1124": " week",
    "1125": "ages",
    "1126": "ivers",
    "1127": " war",
    "1128": " few",
    "1129": "orth",
    "1130": "ording",
    "1131": " cent",
    "1132": " leg",
    "1133": "aj",
    "1134": "get",
    "1135": " polit",
    "1136": "ves",
    "1137": "ash",
    "1138": " expl",
    "1139": " lot",
    "1140": "ric",
    "1141": " Se",
    "1142": " belie",
    "1143": " gener",
    "1144": " too",
    "1145": " 9",
    "1146": "der",
    "1147": "ata",
    "1148": "rent",
    "1149": " opp",
    "1150": "Wh",
    "1151": " requ",
    "1152": " contin",
    "1153": " prot",
    "1154": "iet",
    "1155": "bers",
    "1156": "anc",
    "1157": " fil",
    "1158": "ention",
    "1159": "ness",
    "1160": " cle",
    "1161": " resp",
    "1162": " put",
    "1163": "ized",
    "1164": " If",
    "1165": "20",
    "1166": " another",
    "1167": "chool",
    "1168": " inf",
    "1169": " something",
    "1170": " De",
    "1171": " different",
    "1172": " cor",
    "1173": " loc",
    "1174": "ute",
    "1175": " invest",
    "1176": " soc",
    "1177": " power",
    "1178": " che",
    "1179": "uc",
    "1180": " '",
    "1181": " pass",
    "1182": " commun",
    "1183": " life",
    "1184": " Fr",
    "1185": " plan",
    "1186": "ody",
    "1187": " rele",
    "1188": "ience",
    "1189": " head",
    "1190": " things",
    "1191": "ned",
    "1192": " far",
    "1193": " art",
    "1194": " poss",
    "1195": " met",
    "1196": "thing",
    "1197": "ox",
    "1198": "erest",
    "1199": " camp",
    "1200": "ross",
    "1201": "arge",
    "1202": " vot",
    "1203": "ier",
    "1204": "This",
    "1205": "view",
    "1206": " child",
    "1207": "ants",
    "1208": " ask",
    "1209": " .",
    "1210": " might",
    "1211": " each",
    "1212": "ize",
    "1213": "iness",
    "1214": " dep",
    "1215": " never",
    "1216": " next",
    "1217": "ik",
    "1218": "ield",
    "1219": " second",
    "1220": " mark",
    "1221": "tt",
    "1222": " quest",
    "1223": " bus",
    "1224": " adv",
    "1225": " An",
    "1226": " dem",
    "1227": " For",
    "1228": " come",
    "1229": " got",
    "1230": " â",
    "1231": " open",
    "1232": " best",
    "1233": "ient",
    "1234": "ital",
    "1235": " allow",
    "1236": " That",
    "1237": "rat",
    "1238": " seem",
    "1239": " post",
    "1240": "ple",
    "1241": "nce",
    "1242": " feel",
    "1243": " Pro",
    "1244": " US",
    "1245": "ug",
    "1246": " pri",
    "1247": "gram",
    "1248": " percent",
    "1249": "cl",
    "1250": " home",
    "1251": " dist",
    "1252": " direct",
    "1253": "ired",
    "1254": " incre",
    "1255": " contro",
    "1256": " Rep",
    "1257": "son",
    "1258": "orn",
    "1259": "less",
    "1260": "osed",
    "1261": " result",
    "1262": " hard",
    "1263": " care",
    "1264": "ately",
    "1265": " million",
    "1266": "chn",
    "1267": " comple",
    "1268": " place",
    "1269": " without",
    "1270": " inform",
    "1271": " including",
    "1272": " import",
    "1273": " av",
    "1274": "conom",
    "1275": " hum",
    "1276": " ide",
    "1277": " proble",
    "1278": " build",
    "1279": " top",
    "1280": "ama",
    "1281": " number",
    "1282": " country",
    "1283": "gy",
    "1284": "oney",
    "1285": "aim",
    "1286": " Bl",
    "1287": "ret",
    "1288": "ral",
    "1289": "ably",
    "1290": "uro",
    "1291": " stand",
    "1292": " gl",
    "1293": " el",
    "1294": "riend",
    "1295": " four",
    "1296": "ished",
    "1297": "ways",
    "1298": " partic",
    "1299": " better",
    "1300": "co",
    "1301": " tri",
    "1302": "But",
    "1303": " recent",
    "1304": " interest",
    "1305": " mov",
    "1306": " let",
    "1307": "ration",
    "1308": " season",
    "1309": " less",
    "1310": "ead",
    "1311": " turn",
    "1312": " little",
    "1313": " beh",
    "1314": " mil",
    "1315": " appro",
    "1316": "ract",
    "1317": "line",
    "1318": " bro",
    "1319": "ling",
    "1320": "ised",
    "1321": " called",
    "1322": "app",
    "1323": "10",
    "1324": " case",
    "1325": " dr",
    "1326": " Ind",
    "1327": " rest",
    "1328": " left",
    "1329": " pop",
    "1330": " ann",
    "1331": " Z",
    "1332": "ency",
    "1333": "ode",
    "1334": " move",
    "1335": "ina",
    "1336": " attack",
    "1337": " There",
    "1338": " keep",
    "1339": " full",
    "1340": "ering",
    "1341": " didn",
    "1342": "be",
    "1343": " fun",
    "1344": " main",
    "1345": "ajor",
    "1346": "__",
    "1347": " effect",
    "1348": "inal",
    "1349": "me",
    "1350": "leg",
    "1351": " prev",
    "1352": " program",
    "1353": " using",
    "1354": " test",
    "1355": " pay",
    "1356": "to",
    "1357": "ature",
    "1358": " ear",
    "1359": " val",
    "1360": " police",
    "1361": " writ",
    "1362": " form",
    "1363": " econom",
    "1364": " data",
    "1365": " news",
    "1366": " pos",
    "1367": " win",
    "1368": " American",
    "1369": " level",
    "1370": " sit",
    "1371": " char",
    "1372": "ains",
    "1373": "iving",
    "1374": "uck",
    "1375": " small",
    "1376": "ined",
    "1377": "ready",
    "1378": "He",
    "1379": " school",
    "1380": " list",
    "1381": "ology",
    "1382": "rap",
    "1383": "mit",
    "1384": "ided",
    "1385": "ploy",
    "1386": "'re",
    "1387": "ger",
    "1388": " eas",
    "1389": " process",
    "1390": "ird",
    "1391": " change",
    "1392": " women",
    "1393": " current",
    "1394": " rece",
    "1395": " prom",
    "1396": " hist",
    "1397": " dri",
    "1398": " =",
    "1399": "ians",
    "1400": "reen",
    "1401": " president",
    "1402": " company",
    "1403": " So",
    "1404": "used",
    "1405": " mat",
    "1406": "ruct",
    "1407": " already",
    "1408": "ohn",
    "1409": " United",
    "1410": "wit",
    "1411": " ty",
    "1412": " why",
    "1413": " bre",
    "1414": " unt",
    "1415": " money",
    "1416": " sol",
    "1417": " always",
    "1418": " later",
    "1419": " expect",
    "1420": " techn",
    "1421": " business",
    "1422": " How",
    "1423": " official",
    "1424": "ron",
    "1425": " Q",
    "1426": " Ob",
    "1427": "stand",
    "1428": "iversity",
    "1429": " bo",
    "1430": " book",
    "1431": " Ph",
    "1432": "aign",
    "1433": " thing",
    "1434": " class",
    "1435": " project",
    "1436": "ases",
    "1437": " claim",
    "1438": " job",
    "1439": " information",
    "1440": " organ",
    "1441": "...",
    "1442": "aff",
    "1443": " She",
    "1444": "ards",
    "1445": " talk",
    "1446": " Be",
    "1447": " design",
    "1448": " story",
    "1449": " chang",
    "1450": " major",
    "1451": " able",
    "1452": " prof",
    "1453": " --",
    "1454": "lection",
    "1455": "iven",
    "1456": "ertain",
    "1457": " rese",
    "1458": " health",
    "1459": " vis",
    "1460": " past",
    "1461": "urs",
    "1462": " free",
    "1463": "here",
    "1464": "outh",
    "1465": " Ad",
    "1466": " oper",
    "1467": "ption",
    "1468": " away",
    "1469": "ior",
    "1470": " Can",
    "1471": " must",
    "1472": " city",
    "1473": "ample",
    "1474": "rist",
    "1475": "sc",
    "1476": "ural",
    "1477": " happen",
    "1478": "uthor",
    "1479": " 18",
    "1480": " important",
    "1481": "acy",
    "1482": "urity",
    "1483": " kill",
    "1484": " sk",
    "1485": " est",
    "1486": "ured",
    "1487": " old",
    "1488": " pat",
    "1489": "ury",
    "1490": "ending",
    "1491": " doesn",
    "1492": "ission",
    "1493": " least",
    "1494": " grow",
    "1495": " edit",
    "1496": " var",
    "1497": "ained",
    "1498": "St",
    "1499": " cost",
    "1500": " Go",
    "1501": "ney",
    "1502": "ider",
    "1503": "ides",
    "1504": "els",
    "1505": " days",
    "1506": " tell",
    "1507": " hop",
    "1508": " stre",
    "1509": " campaign",
    "1510": "side",
    "1511": " 12",
    "1512": " men",
    "1513": " came",
    "1514": " aff",
    "1515": " const",
    "1516": "resident",
    "1517": " enough",
    "1518": " view",
    "1519": "ccess",
    "1520": " kind",
    "1521": " Mar",
    "1522": "oad",
    "1523": " Sp",
    "1524": "ern",
    "1525": " making",
    "1526": " large",
    "1527": " record",
    "1528": "50",
    "1529": "ush",
    "1530": " friend",
    "1531": " mar",
    "1532": " family",
    "1533": "â¦",
    "1534": "ley",
    "1535": " elect",
    "1536": "eral",
    "1537": " polic",
    "1538": " tax",
    "1539": "ising",
    "1540": "by",
    "1541": "pped",
    "1542": "ality",
    "1543": "ator",
    "1544": "ified",
    "1545": "As",
    "1546": "ived",
    "1547": "arent",
    "1548": "ror",
    "1549": " until",
    "1550": "ional",
    "1551": " political",
    "1552": " vide",
    "1553": " deal",
    "1554": "ee",
    "1555": "ries",
    "1556": "alf",
    "1557": "augh",
    "1558": " ve",
    "1559": " working",
    "1560": "ued",
    "1561": " Republic",
    "1562": " took",
    "1563": " deb",
    "1564": "bs",
    "1565": "If",
    "1566": "ister",
    "1567": " line",
    "1568": " John",
    "1569": "aining",
    "1570": " air",
    "1571": " es",
    "1572": " intern",
    "1573": " fore",
    "1574": "iol",
    "1575": "ane",
    "1576": "ocrat",
    "1577": " become",
    "1578": " actually",
    "1579": "aps",
    "1580": "ony",
    "1581": " mean",
    "1582": "work",
    "1583": " fund",
    "1584": " Sc",
    "1585": "ware",
    "1586": "19",
    "1587": "ember",
    "1588": " Pl",
    "1589": " former",
    "1590": " often",
    "1591": " Euro",
    "1592": "ott",
    "1593": "ann",
    "1594": " won",
    "1595": " give",
    "1596": "oint",
    "1597": " according",
    "1598": " ever",
    "1599": "most",
    "1600": "eng",
    "1601": "year",
    "1602": "wh",
    "1603": "aring",
    "1604": " games",
    "1605": "ison",
    "1606": " human",
    "1607": " bas",
    "1608": " word",
    "1609": "----",
    "1610": "ization",
    "1611": " return",
    "1612": " times",
    "1613": " order",
    "1614": " Russ",
    "1615": " bit",
    "1616": " Dem",
    "1617": " name",
    "1618": "11",
    "1619": "gin",
    "1620": " sever",
    "1621": " All",
    "1622": " dev",
    "1623": "icle",
    "1624": "uture",
    "1625": "for",
    "1626": "ither",
    "1627": "iqu",
    "1628": " par",
    "1629": " 199",
    "1630": " Mc",
    "1631": " wr",
    "1632": " Con",
    "1633": "raft",
    "1634": " sing",
    "1635": " perform",
    "1636": " Sy",
    "1637": "idd",
    "1638": " market",
    "1639": " fac",
    "1640": " charac",
    "1641": "There",
    "1642": " Or",
    "1643": " At",
    "1644": " May",
    "1645": " ra",
    "1646": " doing",
    "1647": " appear",
    "1648": "ER",
    "1649": "ched",
    "1650": " players",
    "1651": " la",
    "1652": " night",
    "1653": " lear",
    "1654": "aken",
    "1655": "rop",
    "1656": "ats",
    "1657": "mber",
    "1658": " today",
    "1659": " early",
    "1660": " 15",
    "1661": " seen",
    "1662": "//",
    "1663": " having",
    "1664": " ,",
    "1665": " pot",
    "1666": " children",
    "1667": " event",
    "1668": " media",
    "1669": " social",
    "1670": " crit",
    "1671": " President",
    "1672": " whether",
    "1673": " several",
    "1674": " control",
    "1675": "idence",
    "1676": " meet",
    "1677": "sh",
    "1678": " milit",
    "1679": " press",
    "1680": " went",
    "1681": "artment",
    "1682": "ene",
    "1683": " five",
    "1684": " young",
    "1685": "ories",
    "1686": " sure",
    "1687": " prop",
    "1688": "iously",
    "1689": " equ",
    "1690": " question",
    "1691": " occ",
    "1692": " likely",
    "1693": "vert",
    "1694": "une",
    "1695": " members",
    "1696": "br",
    "1697": "ands",
    "1698": " certain",
    "1699": "ium",
    "1700": " eng",
    "1701": " water",
    "1702": " York",
    "1703": " example",
    "1704": "ots",
    "1705": " Col",
    "1706": " side",
    "1707": " ant",
    "1708": " arg",
    "1709": " done",
    "1710": "enn",
    "1711": " vers",
    "1712": " invol",
    "1713": " Mr",
    "1714": " States",
    "1715": " Europe",
    "1716": "ended",
    "1717": "let",
    "1718": " along",
    "1719": " short",
    "1720": " success",
    "1721": "ential",
    "1722": " months",
    "1723": "ball",
    "1724": " hour",
    "1725": " 11",
    "1726": " sex",
    "1727": "iver",
    "1728": "ially",
    "1729": "And",
    "1730": "lf",
    "1731": "empt",
    "1732": " within",
    "1733": " desc",
    "1734": "imate",
    "1735": " course",
    "1736": " fight",
    "1737": "ster",
    "1738": "urch",
    "1739": "ubl",
    "1740": " among",
    "1741": " activ",
    "1742": "uff",
    "1743": "â",
    "1744": "ague",
    "1745": " once",
    "1746": " future",
    "1747": " investig",
    "1748": "ulation",
    "1749": "rew",
    "1750": " possible",
    "1751": " Obama",
    "1752": " cho",
    "1753": "nect",
    "1754": " understand",
    "1755": "iting",
    "1756": " concer",
    "1757": " On",
    "1758": " ]",
    "1759": "ones",
    "1760": "ortun",
    "1761": " problem",
    "1762": " Br",
    "1763": " priv",
    "1764": " means",
    "1765": " viol",
    "1766": " Car",
    "1767": " author",
    "1768": "itive",
    "1769": " No",
    "1770": "ggest",
    "1771": " avail",
    "1772": "oci",
    "1773": "ourn",
    "1774": "my",
    "1775": " known",
    "1776": " product",
    "1777": " non",
    "1778": "ivid",
    "1779": " thought",
    "1780": " yet",
    "1781": "gress",
    "1782": " across",
    "1783": " protect",
    "1784": " local",
    "1785": "ald",
    "1786": "ler",
    "1787": " hold",
    "1788": " Te",
    "1789": " fail",
    "1790": " When",
    "1791": " State",
    "1792": "inc",
    "1793": " community",
    "1794": " reason",
    "1795": " orig",
    "1796": " suggest",
    "1797": " &",
    "1798": "12",
    "1799": " makes",
    "1800": "verage",
    "1801": "not",
    "1802": "por",
    "1803": "back",
    "1804": " 2016",
    "1805": " i",
    "1806": "book",
    "1807": " asked",
    "1808": "ederal",
    "1809": "orld",
    "1810": " reported",
    "1811": "You",
    "1812": "aged",
    "1813": "ensive",
    "1814": " given",
    "1815": " strong",
    "1816": " prob",
    "1817": " mus",
    "1818": " others",
    "1819": " believe",
    "1820": " video",
    "1821": "iber",
    "1822": " ben",
    "1823": " getting",
    "1824": " House",
    "1825": "ances",
    "1826": " announ",
    "1827": " light",
    "1828": "ored",
    "1829": "ober",
    "1830": " University",
    "1831": " 30",
    "1832": " Co",
    "1833": "itions",
    "1834": " ident",
    "1835": "iron",
    "1836": " sent",
    "1837": " cut",
    "1838": " lim",
    "1839": " ca",
    "1840": " Christ",
    "1841": "iety",
    "1842": "30",
    "1843": "urther",
    "1844": " sour",
    "1845": " creat",
    "1846": " cond",
    "1847": " X",
    "1848": "rest",
    "1849": "ams",
    "1850": "'ve",
    "1851": " net",
    "1852": "ashing",
    "1853": " bat",
    "1854": "ament",
    "1855": " national",
    "1856": ".,",
    "1857": " close",
    "1858": " started",
    "1859": " saf",
    "1860": " death",
    "1861": "aster",
    "1862": " available",
    "1863": "arm",
    "1864": " hig",
    "1865": "For",
    "1866": " based",
    "1867": " issue",
    "1868": "of",
    "1869": " indust",
    "1870": " Democrat",
    "1871": " Min",
    "1872": " low",
    "1873": " following",
    "1874": "resent",
    "1875": " account",
    "1876": " land",
    "1877": "use",
    "1878": " Cent",
    "1879": " employ",
    "1880": " love",
    "1881": " 2015",
    "1882": " #",
    "1883": " history",
    "1884": " ago",
    "1885": "orts",
    "1886": "selves",
    "1887": " mom",
    "1888": " party",
    "1889": "ability",
    "1890": " series",
    "1891": "eb",
    "1892": " comes",
    "1893": " trying",
    "1894": "uly",
    "1895": "utes",
    "1896": " Am",
    "1897": " almost",
    "1898": "gether",
    "1899": "ument",
    "1900": " together",
    "1901": "ination",
    "1902": "AT",
    "1903": " America",
    "1904": "pro",
    "1905": " idea",
    "1906": "ief",
    "1907": " access",
    "1908": " foc",
    "1909": "hers",
    "1910": "ilar",
    "1911": " Fl",
    "1912": "reed",
    "1913": "ails",
    "1914": " commit",
    "1915": "itional",
    "1916": " isn",
    "1917": " Sen",
    "1918": " clear",
    "1919": " 16",
    "1920": " One",
    "1921": " trad",
    "1922": "though",
    "1923": "ring",
    "1924": " What",
    "1925": " pract",
    "1926": " added",
    "1927": " impro",
    "1928": " experience",
    "1929": "erence",
    "1930": " film",
    "1931": "15",
    "1932": " half",
    "1933": "ustom",
    "1934": "ged",
    "1935": " hit",
    "1936": "af",
    "1937": " Bro",
    "1938": "witter",
    "1939": "rict",
    "1940": " anal",
    "1941": "inton",
    "1942": "ograp",
    "1943": "unch",
    "1944": " 2014",
    "1945": " rul",
    "1946": "ividual",
    "1947": " looking",
    "1948": " six",
    "1949": " live",
    "1950": " anything",
    "1951": " area",
    "1952": " complete",
    "1953": "erman",
    "1954": "minist",
    "1955": " miss",
    "1956": "rael",
    "1957": " Ex",
    "1958": " Comm",
    "1959": " fav",
    "1960": " ris",
    "1961": "ai",
    "1962": "nes",
    "1963": " present",
    "1964": "ote",
    "1965": "rug",
    "1966": " saying",
    "1967": "raw",
    "1968": "aid",
    "1969": " Canad",
    "1970": " vict",
    "1971": "IN",
    "1972": "cially",
    "1973": " bad",
    "1974": "ows",
    "1975": "uge",
    "1976": " taken",
    "1977": "ert",
    "1978": " entire",
    "1979": "oto",
    "1980": " Pr",
    "1981": "ators",
    "1982": "ev",
    "1983": " bill",
    "1984": " compet",
    "1985": " Eng",
    "1986": " mor",
    "1987": " behind",
    "1988": "ien",
    "1989": " aut",
    "1990": " To",
    "1991": "'m",
    "1992": " court",
    "1993": "play",
    "1994": " try",
    "1995": " tre",
    "1996": " military",
    "1997": " z",
    "1998": " near",
    "1999": "osp",
    "2000": " mult",
    "2001": "What",
    "2002": " face",
    "2003": "wards",
    "2004": " 14",
    "2005": " security",
    "2006": " er",
    "2007": " Pol",
    "2008": "sy",
    "2009": " proper",
    "2010": " discuss",
    "2011": " threat",
    "2012": " tot",
    "2013": " study",
    "2014": " single",
    "2015": " rather",
    "2016": " individual",
    "2017": " Af",
    "2018": " Brit",
    "2019": " War",
    "2020": " Â",
    "2021": "ttp",
    "2022": " quick",
    "2023": " Don",
    "2024": " mind",
    "2025": " Sec",
    "2026": "lement",
    "2027": "ales",
    "2028": "amed",
    "2029": "atic",
    "2030": "An",
    "2031": " North",
    "2032": "aper",
    "2033": " publ",
    "2034": " policy",
    "2035": " mess",
    "2036": "ris",
    "2037": "par",
    "2038": " black",
    "2039": " wanted",
    "2040": " fall",
    "2041": "irc",
    "2042": "**",
    "2043": "off",
    "2044": " food",
    "2045": " sum",
    "2046": " someone",
    "2047": "lling",
    "2048": "ids",
    "2049": "On",
    "2050": " |",
    "2051": " /",
    "2052": " cult",
    "2053": " special",
    "2054": " comb",
    "2055": " key",
    "2056": " Man",
    "2057": " player",
    "2058": " redu",
    "2059": " Gr",
    "2060": " bring",
    "2061": " 13",
    "2062": " compan",
    "2063": " 17",
    "2064": "ply",
    "2065": " Dep",
    "2066": " attempt",
    "2067": " National",
    "2068": " taking",
    "2069": " Bar",
    "2070": "When",
    "2071": "ON",
    "2072": "ify",
    "2073": "olution",
    "2074": " :",
    "2075": "viron",
    "2076": " foot",
    "2077": " Cal",
    "2078": "://",
    "2079": " else",
    "2080": " pret",
    "2081": " body",
    "2082": " space",
    "2083": "elt",
    "2084": "rote",
    "2085": "over",
    "2086": "dd",
    "2087": " probably",
    "2088": "16",
    "2089": "icult",
    "2090": ".)",
    "2091": " front",
    "2092": " cou",
    "2093": " nothing",
    "2094": " sw",
    "2095": "ashington",
    "2096": " Im",
    "2097": " connect",
    "2098": "ches",
    "2099": " World",
    "2100": " research",
    "2101": "14",
    "2102": "ming",
    "2103": " Clinton",
    "2104": " City",
    "2105": " coming",
    "2106": " points",
    "2107": " Israel",
    "2108": "RE",
    "2109": " however",
    "2110": " describ",
    "2111": "go",
    "2112": " jo",
    "2113": " signific",
    "2114": " similar",
    "2115": "yn",
    "2116": "reme",
    "2117": "cing",
    "2118": " benef",
    "2119": "lier",
    "2120": " Aust",
    "2121": " decision",
    "2122": " either",
    "2123": "aces",
    "2124": " coun",
    "2125": "ault",
    "2126": "So",
    "2127": " mass",
    "2128": "mb",
    "2129": " Har",
    "2130": " sus",
    "2131": " targ",
    "2132": "ully",
    "2133": "ana",
    "2134": " feat",
    "2135": "That",
    "2136": " imm",
    "2137": " conv",
    "2138": " exist",
    "2139": "irl",
    "2140": " enc",
    "2141": " 2013",
    "2142": " rights",
    "2143": " service",
    "2144": " Su",
    "2145": "asing",
    "2146": "ung",
    "2147": "sw",
    "2148": "IS",
    "2149": " fire",
    "2150": " doc",
    "2151": " wrote",
    "2152": " further",
    "2153": " house",
    "2154": "rodu",
    "2155": " fig",
    "2156": " chall",
    "2157": "ww",
    "2158": " ban",
    "2159": " third",
    "2160": " wa",
    "2161": " create",
    "2162": " stop",
    "2163": " field",
    "2164": "now",
    "2165": " pick",
    "2166": "AN",
    "2167": "ape",
    "2168": "ively",
    "2169": " meas",
    "2170": " repl",
    "2171": " compl",
    "2172": " With",
    "2173": " issues",
    "2174": "pping",
    "2175": " begin",
    "2176": " super",
    "2177": "amer",
    "2178": " step",
    "2179": "ried",
    "2180": "ently",
    "2181": " whole",
    "2182": " relations",
    "2183": " seems",
    "2184": " )",
    "2185": " companies",
    "2186": "pecially",
    "2187": " due",
    "2188": " exec",
    "2189": " cand",
    "2190": " everything",
    "2191": " federal",
    "2192": " Gu",
    "2193": " states",
    "2194": " ey",
    "2195": " room",
    "2196": "aul",
    "2197": " tra",
    "2198": " watch",
    "2199": "oon",
    "2200": " Ge",
    "2201": " custom",
    "2202": " leaders",
    "2203": "13",
    "2204": "uation",
    "2205": " However",
    "2206": "pite",
    "2207": " Jan",
    "2208": " Washington",
    "2209": "Ch",
    "2210": "lam",
    "2211": " self",
    "2212": " role",
    "2213": "ran",
    "2214": "ilt",
    "2215": " sound",
    "2216": " lab",
    "2217": "att",
    "2218": "head",
    "2219": " dam",
    "2220": "ivil",
    "2221": " officials",
    "2222": " stri",
    "2223": " 2012",
    "2224": "lu",
    "2225": "iday",
    "2226": "ibility",
    "2227": " released",
    "2228": " Inst",
    "2229": "eal",
    "2230": " began",
    "2231": " Dav",
    "2232": " App",
    "2233": " South",
    "2234": " opt",
    "2235": "obal",
    "2236": " students",
    "2237": " treat",
    "2238": " final",
    "2239": " character",
    "2240": " position",
    "2241": " matter",
    "2242": "Ã©",
    "2243": "ender",
    "2244": " ener",
    "2245": "lim",
    "2246": " outside",
    "2247": "ery",
    "2248": "sec",
    "2249": "ades",
    "2250": " dou",
    "2251": "vironment",
    "2252": " development",
    "2253": " statement",
    "2254": " himself",
    "2255": " 2017",
    "2256": " above",
    "2257": "like",
    "2258": " stat",
    "2259": " init",
    "2260": " break",
    "2261": " amount",
    "2262": " 100",
    "2263": " provide",
    "2264": " hours",
    "2265": " itself",
    "2266": " themselves",
    "2267": " office",
    "2268": " represent",
    "2269": " action",
    "2270": " Part",
    "2271": " di",
    "2272": " became",
    "2273": " 198",
    "2274": " general",
    "2275": " continue",
    "2276": " countries",
    "2277": " Intern",
    "2278": " neg",
    "2279": "iod",
    "2280": " address",
    "2281": " 25",
    "2282": " gun",
    "2283": "aced",
    "2284": "ask",
    "2285": " true",
    "2286": " specific",
    "2287": "ograph",
    "2288": "umb",
    "2289": "arter",
    "2290": "reg",
    "2291": " larg",
    "2292": " significant",
    "2293": "lish",
    "2294": " simply",
    "2295": " Ass",
    "2296": " Res",
    "2297": " wasn",
    "2298": "'ll",
    "2299": " interview",
    "2300": "acebook",
    "2301": "ili",
    "2302": " ground",
    "2303": " rad",
    "2304": "oid",
    "2305": "ogn",
    "2306": " difficult",
    "2307": " running",
    "2308": " Just",
    "2309": " evidence",
    "2310": " administ",
    "2311": "BC",
    "2312": " cop",
    "2313": "17",
    "2314": "ream",
    "2315": " drug",
    "2316": " version",
    "2317": "ogle",
    "2318": " bar",
    "2319": " Ed",
    "2320": " agree",
    "2321": "eks",
    "2322": "iddle",
    "2323": " building",
    "2324": " China",
    "2325": " needs",
    "2326": " profess",
    "2327": "angu",
    "2328": " groups",
    "2329": "right",
    "2330": " typ",
    "2331": " respons",
    "2332": " common",
    "2333": " shows",
    "2334": " everyone",
    "2335": " dom",
    "2336": " dest",
    "2337": " needed",
    "2338": " ball",
    "2339": " woman",
    "2340": " German",
    "2341": " lat",
    "2342": " below",
    "2343": " tem",
    "2344": "light",
    "2345": "ournal",
    "2346": " music",
    "2347": " exc",
    "2348": " release",
    "2349": "ift",
    "2350": " inj",
    "2351": " pretty",
    "2352": " Med",
    "2353": " Ab",
    "2354": "AR",
    "2355": "ribut",
    "2356": " include",
    "2357": " saw",
    "2358": " deep",
    "2359": " ap",
    "2360": "body",
    "2361": "18",
    "2362": " played",
    "2363": " quite",
    "2364": " industry",
    "2365": " charg",
    "2366": " mag",
    "2367": " energy",
    "2368": " playing",
    "2369": " mot",
    "2370": " 50",
    "2371": " candid",
    "2372": " sense",
    "2373": " phys",
    "2374": " late",
    "2375": " alleg",
    "2376": " white",
    "2377": " His",
    "2378": "ival",
    "2379": " friends",
    "2380": " gen",
    "2381": " legal",
    "2382": "atur",
    "2383": " anim",
    "2384": "isc",
    "2385": "bo",
    "2386": "yle",
    "2387": " After",
    "2388": "How",
    "2389": "AS",
    "2390": "where",
    "2391": " abs",
    "2392": "lev",
    "2393": " instead",
    "2394": " red",
    "2395": " billion",
    "2396": " lost",
    "2397": " especially",
    "2398": " value",
    "2399": " Mus",
    "2400": " West",
    "2401": " host",
    "2402": " hom",
    "2403": "osing",
    "2404": "oring",
    "2405": " News",
    "2406": "time",
    "2407": "ager",
    "2408": " ple",
    "2409": "istic",
    "2410": " weeks",
    "2411": "epend",
    "2412": " Not",
    "2413": "ccording",
    "2414": "omm",
    "2415": " forward",
    "2416": "ique",
    "2417": " deter",
    "2418": " election",
    "2419": " recently",
    "2420": " jud",
    "2421": " track",
    "2422": " suff",
    "2423": " vote",
    "2424": " Twitter",
    "2425": " object",
    "2426": "irt",
    "2427": "lt",
    "2428": "medi",
    "2429": " period",
    "2430": " changes",
    "2431": " opportun",
    "2432": " White",
    "2433": " Oct",
    "2434": " lo",
    "2435": " longer",
    "2436": "arc",
    "2437": "oke",
    "2438": "eed",
    "2439": " ep",
    "2440": " pain",
    "2441": " soon",
    "2442": " site",
    "2443": " {",
    "2444": "hod",
    "2445": "ript",
    "2446": "ached",
    "2447": " accept",
    "2448": " Cong",
    "2449": " shoot",
    "2450": " economic",
    "2451": " hope",
    "2452": "irm",
    "2453": "oe",
    "2454": " moment",
    "2455": " decl",
    "2456": "lege",
    "2457": " consum",
    "2458": " Will",
    "2459": " pie",
    "2460": " tit",
    "2461": " check",
    "2462": "oph",
    "2463": " potential",
    "2464": "ij",
    "2465": " block",
    "2466": " March",
    "2467": "ole",
    "2468": " wrong",
    "2469": "duct",
    "2470": "ners",
    "2471": " Sept",
    "2472": " Department",
    "2473": " higher",
    "2474": "onse",
    "2475": " cred",
    "2476": "____",
    "2477": " online",
    "2478": " focus",
    "2479": " 24",
    "2480": " consider",
    "2481": "key",
    "2482": " educ",
    "2483": "ancial",
    "2484": " My",
    "2485": "ns",
    "2486": "iding",
    "2487": " circ",
    "2488": " works",
    "2489": " relig",
    "2490": " share",
    "2491": " parent",
    "2492": "cial",
    "2493": " held",
    "2494": "25",
    "2495": " pred",
    "2496": " Dr",
    "2497": " walk",
    "2498": " webs",
    "2499": " led",
    "2500": "ularly",
    "2501": "==",
    "2502": " reve",
    "2503": "lear",
    "2504": " stay",
    "2505": " These",
    "2506": "overed",
    "2507": "alt",
    "2508": " stru",
    "2509": " Republican",
    "2510": " risk",
    "2511": " words",
    "2512": " Aug",
    "2513": " rev",
    "2514": " sold",
    "2515": " review",
    "2516": "icro",
    "2517": " contract",
    "2518": " results",
    "2519": " services",
    "2520": " laws",
    "2521": "They",
    "2522": " code",
    "2523": "cil",
    "2524": " Mich",
    "2525": " wind",
    "2526": " function",
    "2527": " aud",
    "2528": " ce",
    "2529": " Syri",
    "2530": "put",
    "2531": "aut",
    "2532": " total",
    "2533": "fect",
    "2534": " article",
    "2535": " age",
    "2536": " applic",
    "2537": " minutes",
    "2538": "urd",
    "2539": " Me",
    "2540": " personal",
    "2541": "ilities",
    "2542": " anyone",
    "2543": "uary",
    "2544": "ients",
    "2545": "itution",
    "2546": "asons",
    "2547": " June",
    "2548": "Ad",
    "2549": "ateg",
    "2550": " prim",
    "2551": "anger",
    "2552": " target",
    "2553": " Ste",
    "2554": "fer",
    "2555": " den",
    "2556": " earlier",
    "2557": "ule",
    "2558": " favor",
    "2559": " express",
    "2560": "haps",
    "2561": " dead",
    "2562": " answ",
    "2563": " upd",
    "2564": " popular",
    "2565": "che",
    "2566": " comput",
    "2567": " vol",
    "2568": "pril",
    "2569": " necess",
    "2570": "ham",
    "2571": " hy",
    "2572": " rate",
    "2573": "ES",
    "2574": "aging",
    "2575": " technology",
    "2576": "apan",
    "2577": " respect",
    "2578": " Pe",
    "2579": "val",
    "2580": " environment",
    "2581": " 2011",
    "2582": "Ph",
    "2583": " received",
    "2584": " expected",
    "2585": "ude",
    "2586": "ends",
    "2587": " goal",
    "2588": " Par",
    "2589": " created",
    "2590": " base",
    "2591": " surpr",
    "2592": " anti",
    "2593": " Sm",
    "2594": " July",
    "2595": "eter",
    "2596": "tee",
    "2597": " problems",
    "2598": "uel",
    "2599": " ways",
    "2600": " port",
    "2601": "iple",
    "2602": "action",
    "2603": " private",
    "2604": " Do",
    "2605": " scient",
    "2606": " increase",
    "2607": "ray",
    "2608": "reet",
    "2609": " announced",
    "2610": " comment",
    "2611": "isl",
    "2612": " cannot",
    "2613": " easy",
    "2614": "Al",
    "2615": " shot",
    "2616": " Congress",
    "2617": " questions",
    "2618": "bit",
    "2619": " force",
    "2620": "aterial",
    "2621": "hern",
    "2622": " impact",
    "2623": "na",
    "2624": " et",
    "2625": " Mond",
    "2626": "ples",
    "2627": " pack",
    "2628": " +",
    "2629": " Facebook",
    "2630": " pur",
    "2631": " langu",
    "2632": "atives",
    "2633": " God",
    "2634": " En",
    "2635": " involved",
    "2636": "omb",
    "2637": "aving",
    "2638": "ills",
    "2639": "60",
    "2640": "lex",
    "2641": "hood",
    "2642": "onst",
    "2643": " Austral",
    "2644": " div",
    "2645": "uesday",
    "2646": " execut",
    "2647": "ctor",
    "2648": " model",
    "2649": "itiz",
    "2650": " sen",
    "2651": " speak",
    "2652": " staff",
    "2653": " exact",
    "2654": " civil",
    "2655": "ires",
    "2656": " nearly",
    "2657": " type",
    "2658": "ourt",
    "2659": "okes",
    "2660": "ees",
    "2661": " original",
    "2662": " cases",
    "2663": " content",
    "2664": " 197",
    "2665": " relationship",
    "2666": " terror",
    "2667": " Google",
    "2668": "To",
    "2669": " leave",
    "2670": " Friday",
    "2671": " response",
    "2672": " capt",
    "2673": " inside",
    "2674": " <",
    "2675": " phot",
    "2676": "lled",
    "2677": "ech",
    "2678": " fans",
    "2679": " April",
    "2680": "rem",
    "2681": " Red",
    "2682": " international",
    "2683": " coll",
    "2684": "cast",
    "2685": " heart",
    "2686": " average",
    "2687": " broad",
    "2688": " arrest",
    "2689": " users",
    "2690": " Count",
    "2691": " cal",
    "2692": "At",
    "2693": "rel",
    "2694": " cell",
    "2695": " worth",
    "2696": " soft",
    "2697": " ur",
    "2698": " living",
    "2699": " Em",
    "2700": "bor",
    "2701": " nation",
    "2702": "ips",
    "2703": "ky",
    "2704": " killed",
    "2705": " reports",
    "2706": " 2010",
    "2707": "ã",
    "2708": "ging",
    "2709": " becom",
    "2710": " source",
    "2711": " Monday",
    "2712": " Tuesday",
    "2713": " subject",
    "2714": " worked",
    "2715": "atural",
    "2716": "ests",
    "2717": " estab",
    "2718": " immedi",
    "2719": "EN",
    "2720": " respond",
    "2721": " global",
    "2722": " associ",
    "2723": "joy",
    "2724": "ellig",
    "2725": " club",
    "2726": "ops",
    "2727": " Americans",
    "2728": "ael",
    "2729": " obs",
    "2730": "ites",
    "2731": " Per",
    "2732": " Pal",
    "2733": " chance",
    "2734": " oil",
    "2735": " Act",
    "2736": " ability",
    "2737": " Ne",
    "2738": " takes",
    "2739": "rought",
    "2740": " weap",
    "2741": "hel",
    "2742": " price",
    "2743": " Japan",
    "2744": "ological",
    "2745": " director",
    "2746": "izing",
    "2747": " workers",
    "2748": " terms",
    "2749": " road",
    "2750": "mon",
    "2751": " published",
    "2752": " del",
    "2753": " While",
    "2754": " tou",
    "2755": " phone",
    "2756": "rain",
    "2757": " collect",
    "2758": " financial",
    "2759": " mid",
    "2760": "osition",
    "2761": " decided",
    "2762": "ises",
    "2763": "OR",
    "2764": " Russia",
    "2765": " Some",
    "2766": " Wed",
    "2767": " mother",
    "2768": " squ",
    "2769": " lack",
    "2770": " defin",
    "2771": "ovember",
    "2772": " 40",
    "2773": " girl",
    "2774": " store",
    "2775": " gave",
    "2776": " buy",
    "2777": " influ",
    "2778": " Calif",
    "2779": " log",
    "2780": " happened",
    "2781": "ino",
    "2782": " require",
    "2783": " Now",
    "2784": " emer",
    "2785": " fem",
    "2786": "\".",
    "2787": " capital",
    "2788": "clus",
    "2789": " foreign",
    "2790": " currently",
    "2791": " Off",
    "2792": "based",
    "2793": " San",
    "2794": " goes",
    "2795": " By",
    "2796": "oved",
    "2797": " Geor",
    "2798": "vertise",
    "2799": " situation",
    "2800": " indic",
    "2801": " offer",
    "2802": " whose",
    "2803": " @",
    "2804": " tal",
    "2805": " material",
    "2806": " lives",
    "2807": "unt",
    "2808": " affect",
    "2809": "rown",
    "2810": "ought",
    "2811": " plans",
    "2812": "nesday",
    "2813": " arri",
    "2814": " member",
    "2815": " pict",
    "2816": "ursday",
    "2817": " Feb",
    "2818": " particip",
    "2819": "ruction",
    "2820": " recogn",
    "2821": " turned",
    "2822": " method",
    "2823": " events",
    "2824": " January",
    "2825": " Hill",
    "2826": " network",
    "2827": "One",
    "2828": " teams",
    "2829": " Sund",
    "2830": " bank",
    "2831": " meeting",
    "2832": "40",
    "2833": "rect",
    "2834": " norm",
    "2835": " introdu",
    "2836": " simple",
    "2837": "fully",
    "2838": " Islam",
    "2839": " ill",
    "2840": " Ag",
    "2841": " huge",
    "2842": " September",
    "2843": "oud",
    "2844": " regard",
    "2845": " areas",
    "2846": " cy",
    "2847": "order",
    "2848": " Cor",
    "2849": "ese",
    "2850": " TV",
    "2851": " couple",
    "2852": " approach",
    "2853": " career",
    "2854": "aur",
    "2855": " Afric",
    "2856": " Gl",
    "2857": "load",
    "2858": "\",",
    "2859": " deli",
    "2860": " race",
    "2861": "lin",
    "2862": " performance",
    "2863": " page",
    "2864": "ety",
    "2865": "apt",
    "2866": " November",
    "2867": " tool",
    "2868": " David",
    "2869": " felt",
    "2870": " quickly",
    "2871": " mis",
    "2872": " numbers",
    "2873": "oor",
    "2874": " email",
    "2875": " 21",
    "2876": "aily",
    "2877": " ord",
    "2878": " El",
    "2879": "istan",
    "2880": " administration",
    "2881": " hon",
    "2882": " Wednesday",
    "2883": " victim",
    "2884": " Paul",
    "2885": " via",
    "2886": " improve",
    "2887": " engine",
    "2888": "chie",
    "2889": " fre",
    "2890": " pull",
    "2891": " Ang",
    "2892": " round",
    "2893": "bl",
    "2894": " built",
    "2895": " 22",
    "2896": " pers",
    "2897": " European",
    "2898": " dig",
    "2899": "ened",
    "2900": " Thursday",
    "2901": " father",
    "2902": "ornia",
    "2903": " loss",
    "2904": "avy",
    "2905": " thous",
    "2906": "Â­",
    "2907": " http",
    "2908": "ructure",
    "2909": " production",
    "2910": " boy",
    "2911": "ume",
    "2912": " heard",
    "2913": "down",
    "2914": "Sh",
    "2915": " economy",
    "2916": "â.",
    "2917": " enjoy",
    "2918": " August",
    "2919": " trade",
    "2920": " Sch",
    "2921": "face",
    "2922": " website",
    "2923": "iment",
    "2924": " secret",
    "2925": " cover",
    "2926": " reveal",
    "2927": " wide",
    "2928": " board",
    "2929": " match",
    "2930": " Court",
    "2931": "AL",
    "2932": " allowed",
    "2933": " hands",
    "2934": " spent",
    "2935": " travel",
    "2936": " lower",
    "2937": " repe",
    "2938": "atory",
    "2939": " poll",
    "2940": " ste",
    "2941": " included",
    "2942": "cember",
    "2943": " October",
    "2944": " neigh",
    "2945": " legisl",
    "2946": "orters",
    "2947": "uses",
    "2948": " behav",
    "2949": "iction",
    "2950": " knew",
    "2951": " text",
    "2952": " wants",
    "2953": " town",
    "2954": "ights",
    "2955": " British",
    "2956": " separ",
    "2957": "ences",
    "2958": "estern",
    "2959": " visit",
    "2960": " Canada",
    "2961": "anks",
    "2962": "ctions",
    "2963": "With",
    "2964": " perfect",
    "2965": " gets",
    "2966": "ze",
    "2967": "ession",
    "2968": " movement",
    "2969": "ishing",
    "2970": "ground",
    "2971": "agement",
    "2972": " tried",
    "2973": " cause",
    "2974": "?â",
    "2975": "gest",
    "2976": " }",
    "2977": " forces",
    "2978": " Sunday",
    "2979": " ens",
    "2980": "After",
    "2981": "force",
    "2982": "ceed",
    "2983": " attention",
    "2984": " particular",
    "2985": " bi",
    "2986": "][",
    "2987": "ening",
    "2988": " veh",
    "2989": " bud",
    "2990": " fear",
    "2991": " population",
    "2992": " various",
    "2993": " UK",
    "2994": " reach",
    "2995": "ma",
    "2996": " looks",
    "2997": " 23",
    "2998": " California",
    "2999": " brought",
    "3000": " vo",
    "3001": " Kore",
    "3002": " link",
    "3003": "ibly",
    "3004": ");",
    "3005": "urning",
    "3006": "arily",
    "3007": " IS",
    "3008": "200",
    "3009": " previous",
    "3010": "ED",
    "3011": " mention",
    "3012": " Russian",
    "3013": " morning",
    "3014": " Qu",
    "3015": "cle",
    "3016": "idered",
    "3017": "eg",
    "3018": "'d",
    "3019": " fair",
    "3020": " growth",
    "3021": "aker",
    "3022": " Sw",
    "3023": "undred",
    "3024": "99",
    "3025": "sequ",
    "3026": "yond",
    "3027": " progress",
    "3028": " fell",
    "3029": "raz",
    "3030": "alled",
    "3031": " song",
    "3032": "iam",
    "3033": " Cont",
    "3034": "AC",
    "3035": " training",
    "3036": "field",
    "3037": "hold",
    "3038": "uk",
    "3039": " size",
    "3040": " Black",
    "3041": "cies",
    "3042": " December",
    "3043": "idents",
    "3044": " contact",
    "3045": "ledge",
    "3046": " Her",
    "3047": " demand",
    "3048": "While",
    "3049": " image",
    "3050": " hor",
    "3051": " rac",
    "3052": " hot",
    "3053": "ification",
    "3054": "OS",
    "3055": " leader",
    "3056": "set",
    "3057": "ecause",
    "3058": " rules",
    "3059": " prep",
    "3060": " liber",
    "3061": " search",
    "3062": " ess",
    "3063": " Post",
    "3064": "--------",
    "3065": " citiz",
    "3066": " upon",
    "3067": " strugg",
    "3068": " Street",
    "3069": " latest",
    "3070": "come",
    "3071": " independ",
    "3072": "US",
    "3073": "uments",
    "3074": "inks",
    "3075": "arth",
    "3076": " features",
    "3077": " coach",
    "3078": "ondon",
    "3079": " Park",
    "3080": "iant",
    "3081": " fast",
    "3082": "Tr",
    "3083": "oo",
    "3084": "sych",
    "3085": " talking",
    "3086": " Jew",
    "3087": "omp",
    "3088": " addition",
    "3089": "ges",
    "3090": " star",
    "3091": " wond",
    "3092": " Senate",
    "3093": "IT",
    "3094": " Pat",
    "3095": " speed",
    "3096": " exam",
    "3097": " considered",
    "3098": "raq",
    "3099": "icles",
    "3100": "aries",
    "3101": " reb",
    "3102": "bed",
    "3103": " levels",
    "3104": "eth",
    "3105": " Times",
    "3106": " County",
    "3107": "elligence",
    "3108": " slow",
    "3109": " investigation",
    "3110": "ps",
    "3111": "ille",
    "3112": " conduct",
    "3113": "aph",
    "3114": " Party",
    "3115": "22",
    "3116": " King",
    "3117": " medical",
    "3118": " mach",
    "3119": "imately",
    "3120": "vent",
    "3121": " achie",
    "3122": " language",
    "3123": "aturday",
    "3124": " card",
    "3125": " sn",
    "3126": "unk",
    "3127": " sort",
    "3128": " critic",
    "3129": "ope",
    "3130": " Tex",
    "3131": " Center",
    "3132": " pen",
    "3133": " und",
    "3134": "wo",
    "3135": " India",
    "3136": " paper",
    "3137": "ysis",
    "3138": "IC",
    "3139": " 2008",
    "3140": "pir",
    "3141": " conserv",
    "3142": " parents",
    "3143": "imin",
    "3144": " sexual",
    "3145": " systems",
    "3146": " prior",
    "3147": "ha",
    "3148": "uit",
    "3149": "asc",
    "3150": " doll",
    "3151": " written",
    "3152": "uf",
    "3153": " box",
    "3154": " spokes",
    "3155": "igr",
    "3156": " seek",
    "3157": " sens",
    "3158": "het",
    "3159": " document",
    "3160": "idge",
    "3161": "eared",
    "3162": " increasing",
    "3163": " hear",
    "3164": "ani",
    "3165": "atform",
    "3166": " draw",
    "3167": " seven",
    "3168": " son",
    "3169": " Muslim",
    "3170": " effort",
    "3171": "ruary",
    "3172": " jobs",
    "3173": " Iran",
    "3174": " extreme",
    "3175": " prevent",
    "3176": " learn",
    "3177": "ining",
    "3178": " serious",
    "3179": " regul",
    "3180": "rast",
    "3181": " inn",
    "3182": " range",
    "3183": " ...",
    "3184": "room",
    "3185": " violence",
    "3186": " eight",
    "3187": "80",
    "3188": " Mark",
    "3189": "ources",
    "3190": " Iraq",
    "3191": "itch",
    "3192": "OP",
    "3193": " surve",
    "3194": " completely",
    "3195": " conc",
    "3196": " 2009",
    "3197": " message",
    "3198": "ico",
    "3199": "tr",
    "3200": " â",
    "3201": "She",
    "3202": " obv",
    "3203": " interesting",
    "3204": "reedom",
    "3205": " screen",
    "3206": "abor",
    "3207": " opportunity",
    "3208": "eff",
    "3209": " climate",
    "3210": "24",
    "3211": "ext",
    "3212": " majority",
    "3213": " Ke",
    "3214": "anced",
    "3215": " particularly",
    "3216": " doub",
    "3217": " journal",
    "3218": " Rom",
    "3219": " despite",
    "3220": " claims",
    "3221": " Char",
    "3222": " answer",
    "3223": " society",
    "3224": " London",
    "3225": " defense",
    "3226": " carry",
    "3227": "entially",
    "3228": "aming",
    "3229": " guy",
    "3230": " extra",
    "3231": "ension",
    "3232": "mp",
    "3233": " Donald",
    "3234": "isions",
    "3235": " attacks",
    "3236": " required",
    "3237": "erve",
    "3238": "rench",
    "3239": "illed",
    "3240": " biggest",
    "3241": "vertisement",
    "3242": " East",
    "3243": " exactly",
    "3244": "iers",
    "3245": " paid",
    "3246": " More",
    "3247": "ibr",
    "3248": " experien",
    "3249": " aren",
    "3250": "lying",
    "3251": "uclear",
    "3252": "inese",
    "3253": " modern",
    "3254": " remain",
    "3255": " quarter",
    "3256": " officers",
    "3257": "ett",
    "3258": " hundred",
    "3259": " cross",
    "3260": " except",
    "3261": "utions",
    "3262": "ari",
    "3263": " table",
    "3264": " practice",
    "3265": " natural",
    "3266": "inally",
    "3267": " middle",
    "3268": "erc",
    "3269": " 27",
    "3270": " certainly",
    "3271": " dro",
    "3272": "add",
    "3273": "oses",
    "3274": " Saturday",
    "3275": " stories",
    "3276": " Net",
    "3277": " histor",
    "3278": " gas",
    "3279": " products",
    "3280": " surv",
    "3281": " looked",
    "3282": " sometimes",
    "3283": "nces",
    "3284": " stuff",
    "3285": " rout",
    "3286": " science",
    "3287": " finally",
    "3288": " user",
    "3289": "AM",
    "3290": " summer",
    "3291": " movie",
    "3292": " blood",
    "3293": "ospital",
    "3294": "aves",
    "3295": " communic",
    "3296": " aw",
    "3297": "ously",
    "3298": " lay",
    "3299": " changed",
    "3300": " ones",
    "3301": " leading",
    "3302": " described",
    "3303": " Sand",
    "3304": " imag",
    "3305": " term",
    "3306": " February",
    "3307": "fl",
    "3308": " prison",
    "3309": " convers",
    "3310": "ny",
    "3311": " details",
    "3312": "icks",
    "3313": " starting",
    "3314": " Spe",
    "3315": " quality",
    "3316": " occur",
    "3317": " pan",
    "3318": "hib",
    "3319": " showed",
    "3320": " named",
    "3321": " giving",
    "3322": " ult",
    "3323": " remains",
    "3324": " McC",
    "3325": "uing",
    "3326": " region",
    "3327": "pper",
    "3328": " provided",
    "3329": " costs",
    "3330": "akers",
    "3331": " Soc",
    "3332": "arr",
    "3333": " damage",
    "3334": " mob",
    "3335": " danger",
    "3336": " fit",
    "3337": "aught",
    "3338": " TH",
    "3339": " Tur",
    "3340": " chief",
    "3341": " poor",
    "3342": " path",
    "3343": " Mor",
    "3344": "ida",
    "3345": " education",
    "3346": " multiple",
    "3347": " continued",
    "3348": "enge",
    "3349": " Int",
    "3350": " growing",
    "3351": "No",
    "3352": " demonst",
    "3353": " *",
    "3354": " Che",
    "3355": " parts",
    "3356": "yl",
    "3357": " 26",
    "3358": " writing",
    "3359": " comments",
    "3360": " 28",
    "3361": " ment",
    "3362": " maintain",
    "3363": " safe",
    "3364": " assist",
    "3365": " thinking",
    "3366": " Des",
    "3367": "inary",
    "3368": " Republicans",
    "3369": " Even",
    "3370": " purp",
    "3371": " request",
    "3372": " write",
    "3373": " fix",
    "3374": " item",
    "3375": " purch",
    "3376": "ables",
    "3377": " died",
    "3378": " Democratic",
    "3379": " Coun",
    "3380": "FL",
    "3381": "ago",
    "3382": " ready",
    "3383": "coin",
    "3384": " wouldn",
    "3385": " implement",
    "3386": "23",
    "3387": " increased",
    "3388": " culture",
    "3389": "fort",
    "3390": " efforts",
    "3391": " voters",
    "3392": "ux",
    "3393": "pre",
    "3394": " camer",
    "3395": " mill",
    "3396": "aly",
    "3397": "oper",
    "3398": " reading",
    "3399": "mitted",
    "3400": "iminal",
    "3401": " file",
    "3402": " usually",
    "3403": " calls",
    "3404": " spot",
    "3405": " effects",
    "3406": "Im",
    "3407": " Gener",
    "3408": "zz",
    "3409": " perhaps",
    "3410": "ban",
    "3411": " alone",
    "3412": "arian",
    "3413": "iles",
    "3414": " First",
    "3415": " although",
    "3416": " towards",
    "3417": " League",
    "3418": "de",
    "3419": " consist",
    "3420": " Bill",
    "3421": " Texas",
    "3422": " select",
    "3423": " guys",
    "3424": " standard",
    "3425": " Michael",
    "3426": " subst",
    "3427": " cele",
    "3428": " beyond",
    "3429": " directly",
    "3430": " platform",
    "3431": " Chinese",
    "3432": " (@",
    "3433": " hous",
    "3434": "using",
    "3435": "itute",
    "3436": " speech",
    "3437": " reality",
    "3438": "icated",
    "3439": " kids",
    "3440": " James",
    "3441": " avoid",
    "3442": " throughout",
    "3443": " football",
    "3444": " student",
    "3445": "ara",
    "3446": " couldn",
    "3447": "rowd",
    "3448": "BI",
    "3449": " unf",
    "3450": "ford",
    "3451": " immediately",
    "3452": "oul",
    "3453": " rob",
    "3454": " includes",
    "3455": " cat",
    "3456": " concept",
    "3457": "egr",
    "3458": " center",
    "3459": " choice",
    "3460": " scene",
    "3461": " complex",
    "3462": "anch",
    "3463": " additional",
    "3464": "sp",
    "3465": " Mon",
    "3466": " challeng",
    "3467": " Cons",
    "3468": " wife",
    "3469": " clos",
    "3470": "urt",
    "3471": " tro",
    "3472": " recomm",
    "3473": " researc",
    "3474": "Re",
    "3475": " epis",
    "3476": "hest",
    "3477": "itor",
    "3478": "All",
    "3479": " ver",
    "3480": " Minister",
    "3481": " sle",
    "3482": " corpor",
    "3483": " â¦",
    "3484": " designed",
    "3485": " Ser",
    "3486": "urg",
    "3487": "agon",
    "3488": " remember",
    "3489": " software",
    "3490": " safety",
    "3491": " Indian",
    "3492": "wise",
    "3493": " gone",
    "3494": " il",
    "3495": "astic",
    "3496": "ports",
    "3497": " cast",
    "3498": " sell",
    "3499": " toward",
    "3500": " agency",
    "3501": " ten",
    "3502": " officer",
    "3503": "aches",
    "3504": " figure",
    "3505": " piece",
    "3506": " brain",
    "3507": "omen",
    "3508": " battle",
    "3509": " Jack",
    "3510": "men",
    "3511": " counter",
    "3512": " debate",
    "3513": "airs",
    "3514": "ression",
    "3515": "ston",
    "3516": " thousands",
    "3517": "adem",
    "3518": " swe",
    "3519": "rupt",
    "3520": " opin",
    "3521": " ahead",
    "3522": "icient",
    "3523": "Now",
    "3524": "imum",
    "3525": " relative",
    "3526": "irth",
    "3527": " letter",
    "3528": " receive",
    "3529": " pressure",
    "3530": " Ð",
    "3531": " Bo",
    "3532": " blog",
    "3533": "ilies",
    "3534": "ampions",
    "3535": " >",
    "3536": " sil",
    "3537": " moved",
    "3538": " launch",
    "3539": " appears",
    "3540": " option",
    "3541": " Play",
    "3542": " passed",
    "3543": " ut",
    "3544": " prec",
    "3545": " stage",
    "3546": "roy",
    "3547": "oes",
    "3548": " 60",
    "3549": " clean",
    "3550": " Serv",
    "3551": "olute",
    "3552": " II",
    "3553": "atever",
    "3554": "berg",
    "3555": "OT",
    "3556": " property",
    "3557": "27",
    "3558": " helped",
    "3559": "amb",
    "3560": " drive",
    "3561": " Apple",
    "3562": "just",
    "3563": " alleged",
    "3564": " Green",
    "3565": " twe",
    "3566": "new",
    "3567": " disapp",
    "3568": " tour",
    "3569": " meaning",
    "3570": " rock",
    "3571": " dog",
    "3572": " x",
    "3573": " cris",
    "3574": "itation",
    "3575": " Associ",
    "3576": " suspect",
    "3577": " date",
    "3578": " Rich",
    "3579": "aughter",
    "3580": " moving",
    "3581": " score",
    "3582": " Democrats",
    "3583": " organization",
    "3584": " sat",
    "3585": " conditions",
    "3586": " touch",
    "3587": " dark",
    "3588": " command",
    "3589": " Then",
    "3590": " ign",
    "3591": "?\"",
    "3592": " reasons",
    "3593": " budget",
    "3594": " park",
    "3595": "more",
    "3596": " nuclear",
    "3597": " myself",
    "3598": " nom",
    "3599": " deg",
    "3600": " happy",
    "3601": " device",
    "3602": " difference",
    "3603": "rief",
    "3604": " Sim",
    "3605": " maybe",
    "3606": "chan",
    "3607": " beginning",
    "3608": "AD",
    "3609": " copy",
    "3610": " nature",
    "3611": " failed",
    "3612": "....",
    "3613": "wood",
    "3614": " fan",
    "3615": " characters",
    "3616": "yan",
    "3617": " computer",
    "3618": " encour",
    "3619": " aim",
    "3620": " Mart",
    "3621": " title",
    "3622": " wall",
    "3623": " compared",
    "3624": " league",
    "3625": "ocked",
    "3626": " Super",
    "3627": "ivity",
    "3628": " estim",
    "3629": " Val",
    "3630": " Star",
    "3631": " college",
    "3632": " eyes",
    "3633": " shown",
    "3634": " English",
    "3635": " century",
    "3636": " powerful",
    "3637": " Day",
    "3638": "lease",
    "3639": "ource",
    "3640": " bal",
    "3641": "aint",
    "3642": " limited",
    "3643": " yes",
    "3644": " band",
    "3645": " contribut",
    "3646": " positive",
    "3647": " forced",
    "3648": " sche",
    "3649": " necessary",
    "3650": " refer",
    "3651": " candidate",
    "3652": " stra",
    "3653": " disp",
    "3654": "35",
    "3655": "cient",
    "3656": " books",
    "3657": " trust",
    "3658": "AP",
    "3659": " French",
    "3660": " largest",
    "3661": "26",
    "3662": " arch",
    "3663": "enty",
    "3664": " sal",
    "3665": " Here",
    "3666": " conference",
    "3667": " Rober",
    "3668": "aud",
    "3669": " note",
    "3670": " analysis",
    "3671": "ufact",
    "3672": " spending",
    "3673": " presidential",
    "3674": "45",
    "3675": " Of",
    "3676": " citizens",
    "3677": "orks",
    "3678": " schools",
    "3679": "igration",
    "3680": " Syria",
    "3681": " throw",
    "3682": "venue",
    "3683": " Ben",
    "3684": " aware",
    "3685": " meant",
    "3686": " executive",
    "3687": " eventually",
    "3688": "My",
    "3689": " physical",
    "3690": " followed",
    "3691": " feature",
    "3692": " treatment",
    "3693": " crowd",
    "3694": "Be",
    "3695": " Tor",
    "3696": " Wind",
    "3697": " firm",
    "3698": " streng",
    "3699": " confir",
    "3700": " mix",
    "3701": " bott",
    "3702": "ero",
    "3703": " correct",
    "3704": "orney",
    "3705": " 29",
    "3706": "ares",
    "3707": " Dis",
    "3708": " grad",
    "3709": " religious",
    "3710": " easily",
    "3711": " autom",
    "3712": " esc",
    "3713": " pus",
    "3714": "band",
    "3715": "board",
    "3716": "Is",
    "3717": " cool",
    "3718": "etro",
    "3719": " 196",
    "3720": " families",
    "3721": " illeg",
    "3722": "ressed",
    "3723": "craft",
    "3724": "cul",
    "3725": "rated",
    "3726": " actions",
    "3727": " overall",
    "3728": " Air",
    "3729": " Mex",
    "3730": " allows",
    "3731": " gives",
    "3732": " feed",
    "3733": " Â£",
    "3734": "):",
    "3735": " susp",
    "3736": "ube",
    "3737": " yourself",
    "3738": "By",
    "3739": " draft",
    "3740": "bum",
    "3741": "ken",
    "3742": " smart",
    "3743": " appeared",
    "3744": " detail",
    "3745": " income",
    "3746": "iring",
    "3747": " analy",
    "3748": " Bel",
    "3749": " signed",
    "3750": "New",
    "3751": "encies",
    "3752": " central",
    "3753": " ideas",
    "3754": " ang",
    "3755": " Govern",
    "3756": " senior",
    "3757": "Advertisement",
    "3758": " frequ",
    "3759": " weapons",
    "3760": "ID",
    "3761": " Bre",
    "3762": " har",
    "3763": " display",
    "3764": " promot",
    "3765": " nice",
    "3766": " credit",
    "3767": " decades",
    "3768": " psych",
    "3769": " politics",
    "3770": "Don",
    "3771": " crime",
    "3772": "OM",
    "3773": "EC",
    "3774": " uses",
    "3775": "inn",
    "3776": " door",
    "3777": " dise",
    "3778": "uty",
    "3779": " International",
    "3780": " unique",
    "3781": "28",
    "3782": " altern",
    "3783": " lif",
    "3784": "According",
    "3785": " drop",
    "3786": " sales",
    "3787": "mar",
    "3788": " developed",
    "3789": "Ar",
    "3790": "resh",
    "3791": " customers",
    "3792": "ET",
    "3793": " benefits",
    "3794": " conflic",
    "3795": "urance",
    "3796": " related",
    "3797": " crisis",
    "3798": " School",
    "3799": " mist",
    "3800": "erry",
    "3801": "iable",
    "3802": " predict",
    "3803": " noted",
    "3804": " Cap",
    "3805": "29",
    "3806": " Australia",
    "3807": " EU",
    "3808": " truth",
    "3809": "box",
    "3810": "part",
    "3811": " goals",
    "3812": "iny",
    "3813": " individuals",
    "3814": " charge",
    "3815": " Earth",
    "3816": " beaut",
    "3817": " continues",
    "3818": "onents",
    "3819": " Union",
    "3820": " Arab",
    "3821": " observ",
    "3822": " rap",
    "3823": " challenge",
    "3824": " sto",
    "3825": "nown",
    "3826": " apparent",
    "3827": " Angel",
    "3828": "itely",
    "3829": " Smith",
    "3830": " lic",
    "3831": " projects",
    "3832": " peace",
    "3833": " measure",
    "3834": " Police",
    "3835": "oti",
    "3836": " intelligence",
    "3837": " Christian",
    "3838": " previously",
    "3839": " Germany",
    "3840": " fully",
    "3841": " rule",
    "3842": " manager",
    "3843": " brother",
    "3844": " rates",
    "3845": " advant",
    "3846": "Un",
    "3847": "change",
    "3848": " expand",
    "3849": " clearly",
    "3850": " reform",
    "3851": " lines",
    "3852": "net",
    "3853": " successful",
    "3854": "riage",
    "3855": " highly",
    "3856": " larger",
    "3857": "ounds",
    "3858": "21",
    "3859": " traff",
    "3860": " spread",
    "3861": "iance",
    "3862": " seemed",
    "3863": " Council",
    "3864": " straight",
    "3865": "Some",
    "3866": " criminal",
    "3867": " Comp",
    "3868": " minor",
    "3869": " emb",
    "3870": "ki",
    "3871": " George",
    "3872": " programs",
    "3873": "iced",
    "3874": "attle",
    "3875": "owers",
    "3876": " Franc",
    "3877": " incident",
    "3878": " resources",
    "3879": " Tom",
    "3880": " greater",
    "3881": " primary",
    "3882": "IA",
    "3883": "inated",
    "3884": "antly",
    "3885": " knowledge",
    "3886": "Pro",
    "3887": " studies",
    "3888": "while",
    "3889": "dom",
    "3890": " save",
    "3891": "orter",
    "3892": " web",
    "3893": "ategy",
    "3894": "ean",
    "3895": " kept",
    "3896": " attract",
    "3897": " Flor",
    "3898": "olic",
    "3899": " spir",
    "3900": " emot",
    "3901": "que",
    "3902": " color",
    "3903": " feet",
    "3904": " Cr",
    "3905": "sey",
    "3906": " rare",
    "3907": " reached",
    "3908": " Ant",
    "3909": "secut",
    "3910": " arm",
    "3911": " High",
    "3912": "levision",
    "3913": " Internet",
    "3914": " Brown",
    "3915": "oday",
    "3916": "iders",
    "3917": "osh",
    "3918": " favorite",
    "3919": " places",
    "3920": "rs",
    "3921": " Rec",
    "3922": " regular",
    "3923": "wide",
    "3924": "ota",
    "3925": "vere",
    "3926": " manufact",
    "3927": " laun",
    "3928": " Def",
    "3929": " send",
    "3930": "100",
    "3931": " prem",
    "3932": " Ham",
    "3933": "roll",
    "3934": "lick",
    "3935": "icit",
    "3936": " knows",
    "3937": " shooting",
    "3938": " activity",
    "3939": " pun",
    "3940": " sources",
    "3941": " normal",
    "3942": "icago",
    "3943": "bon",
    "3944": "term",
    "3945": "ingly",
    "3946": "onent",
    "3947": "ser",
    "3948": "ville",
    "3949": " status",
    "3950": " fighting",
    "3951": " voice",
    "3952": " rise",
    "3953": "ocks",
    "3954": " fine",
    "3955": " owners",
    "3956": " caused",
    "3957": " claimed",
    "3958": " Mac",
    "3959": " enem",
    "3960": " liter",
    "3961": " Rob",
    "3962": " Up",
    "3963": " General",
    "3964": "aith",
    "3965": "EO",
    "3966": " options",
    "3967": " 2007",
    "3968": " integr",
    "3969": "ength",
    "3970": "usion",
    "3971": " spend",
    "3972": " Gold",
    "3973": "ado",
    "3974": " cities",
    "3975": "miss",
    "3976": " organiz",
    "3977": "ING",
    "3978": " ended",
    "3979": "iled",
    "3980": " researchers",
    "3981": " calling",
    "3982": " shut",
    "3983": " reflect",
    "3984": " La",
    "3985": "mission",
    "3986": "mark",
    "3987": "org",
    "3988": "â,",
    "3989": "oles",
    "3990": "70",
    "3991": "roid",
    "3992": " prices",
    "3993": " Every",
    "3994": " album",
    "3995": " From",
    "3996": "ifying",
    "3997": " employees",
    "3998": " female",
    "3999": " England",
    "4000": "ya",
    "4001": "www",
    "4002": " virt",
    "4003": " haven",
    "4004": " raised",
    "4005": "mittee",
    "4006": " ele",
    "4007": " jump",
    "4008": "uana",
    "4009": "33",
    "4010": " supposed",
    "4011": "itness",
    "4012": " happens",
    "4013": " adding",
    "4014": " policies",
    "4015": " names",
    "4016": " charges",
    "4017": " pros",
    "4018": " trou",
    "4019": "ica",
    "4020": "ribution",
    "4021": " basic",
    "4022": "iverse",
    "4023": "uman",
    "4024": "Not",
    "4025": " Mag",
    "4026": " concerns",
    "4027": " traditional",
    "4028": " wait",
    "4029": "inger",
    "4030": " plant",
    "4031": " absolute",
    "4032": " acqu",
    "4033": " hospital",
    "4034": " funding",
    "4035": "ram",
    "4036": " Bay",
    "4037": " print",
    "4038": " slight",
    "4039": " commer",
    "4040": "rol",
    "4041": " patients",
    "4042": " authorities",
    "4043": " minister",
    "4044": "Sc",
    "4045": " creating",
    "4046": " freedom",
    "4047": " AP",
    "4048": " mechan",
    "4049": " scen",
    "4050": " Mo",
    "4051": " style",
    "4052": " seeing",
    "4053": " grand",
    "4054": ".â",
    "4055": " beat",
    "4056": " lik",
    "4057": "ona",
    "4058": "rian",
    "4059": " station",
    "4060": " Scott",
    "4061": "see",
    "4062": " push",
    "4063": "ijuana",
    "4064": " behavior",
    "4065": " beg",
    "4066": " leaving",
    "4067": " cry",
    "4068": " impl",
    "4069": " birth",
    "4070": " ir",
    "4071": " actual",
    "4072": "EL",
    "4073": " ensure",
    "4074": " offered",
    "4075": "pen",
    "4076": " agreement",
    "4077": " Florida",
    "4078": " eth",
    "4079": "soft",
    "4080": " Hillary",
    "4081": " posted",
    "4082": " gold",
    "4083": " Sun",
    "4084": " weekend",
    "4085": " green",
    "4086": " Most",
    "4087": " Ber",
    "4088": " Reg",
    "4089": " adult",
    "4090": "alse",
    "4091": " weight",
    "4092": "OU",
    "4093": ".'",
    "4094": "acing",
    "4095": " determin",
    "4096": " vac",
    "4097": "Here",
    "4098": " revealed",
    "4099": " Well",
    "4100": " application",
    "4101": " mostly",
    "4102": " values",
    "4103": " propos",
    "4104": "itude",
    "4105": " Alex",
    "4106": "aby",
    "4107": " willing",
    "4108": "earch",
    "4109": " rank",
    "4110": " adop",
    "4111": " According",
    "4112": " establ",
    "4113": " eye",
    "4114": " records",
    "4115": "ection",
    "4116": "â¢",
    "4117": "500",
    "4118": " enforce",
    "4119": "http",
    "4120": " picture",
    "4121": " believed",
    "4122": "pri",
    "4123": " mer",
    "4124": "uild",
    "4125": " brief",
    "4126": " Let",
    "4127": " learned",
    "4128": " Law",
    "4129": " install",
    "4130": " strategy",
    "4131": " appl",
    "4132": "SA",
    "4133": "igned",
    "4134": " choose",
    "4135": "istry",
    "4136": " dire",
    "4137": " wonder",
    "4138": " qual",
    "4139": " massive",
    "4140": " devices",
    "4141": " benefit",
    "4142": " wild",
    "4143": " parties",
    "4144": " Chicago",
    "4145": " lawy",
    "4146": " People",
    "4147": " uns",
    "4148": "cher",
    "4149": " cars",
    "4150": " Trans",
    "4151": " Port",
    "4152": "cont",
    "4153": " Phil",
    "4154": " arrested",
    "4155": " mount",
    "4156": " whatever",
    "4157": " wat",
    "4158": " Oh",
    "4159": " France",
    "4160": " street",
    "4161": " ;",
    "4162": " provides",
    "4163": " whom",
    "4164": " assault",
    "4165": "90",
    "4166": "liament",
    "4167": " asking",
    "4168": " influence",
    "4169": "ties",
    "4170": " judge",
    "4171": " lose",
    "4172": " fat",
    "4173": " feeling",
    "4174": " operations",
    "4175": " produced",
    "4176": " temper",
    "4177": "ste",
    "4178": " critical",
    "4179": " Secret",
    "4180": " Lou",
    "4181": " negoti",
    "4182": "point",
    "4183": " mission",
    "4184": " enter",
    "4185": " Bush",
    "4186": "Ex",
    "4187": " images",
    "4188": "Ð¾",
    "4189": " Stud",
    "4190": " confirmed",
    "4191": " showing",
    "4192": "IL",
    "4193": " district",
    "4194": "ription",
    "4195": " runs",
    "4196": " pattern",
    "4197": "gen",
    "4198": " tend",
    "4199": " Mat",
    "4200": " border",
    "4201": " residents",
    "4202": "orial",
    "4203": "rav",
    "4204": " debt",
    "4205": "However",
    "4206": " Ã",
    "4207": "aked",
    "4208": "no",
    "4209": " cru",
    "4210": " teac",
    "4211": "mine",
    "4212": " Committee",
    "4213": "udd",
    "4214": " opposition",
    "4215": "Cl",
    "4216": " celebr",
    "4217": " Wall",
    "4218": " Health",
    "4219": " section",
    "4220": " defend",
    "4221": " etc",
    "4222": "estic",
    "4223": " produce",
    "4224": "icial",
    "4225": " Commission",
    "4226": " drink",
    "4227": " independent",
    "4228": " Mod",
    "4229": "ront",
    "4230": "cell",
    "4231": " Why",
    "4232": " brand",
    "4233": "ented",
    "4234": "ags",
    "4235": "ugg",
    "4236": " core",
    "4237": " Press",
    "4238": " tick",
    "4239": " digital",
    "4240": " Bit",
    "4241": " hero",
    "4242": " advoc",
    "4243": "ae",
    "4244": " dollars",
    "4245": "ocr",
    "4246": "rial",
    "4247": " effective",
    "4248": " solution",
    "4249": " Mal",
    "4250": " vill",
    "4251": " interested",
    "4252": " Sam",
    "4253": " Korea",
    "4254": "BA",
    "4255": " highest",
    "4256": "ords",
    "4257": " memory",
    "4258": " opening",
    "4259": " worse",
    "4260": " learning",
    "4261": " responsible",
    "4262": " trial",
    "4263": " daily",
    "4264": " kick",
    "4265": " theory",
    "4266": " Other",
    "4267": " offers",
    "4268": " Palest",
    "4269": " replace",
    "4270": " restrict",
    "4271": " Get",
    "4272": " mur",
    "4273": " Office",
    "4274": " agreed",
    "4275": " television",
    "4276": " Francis",
    "4277": "cience",
    "4278": " Micro",
    "4279": " Because",
    "4280": " occas",
    "4281": "ST",
    "4282": "illing",
    "4283": "CC",
    "4284": " train",
    "4285": " investment",
    "4286": " vs",
    "4287": " types",
    "4288": "iation",
    "4289": " Western",
    "4290": "aks",
    "4291": "icians",
    "4292": " chair",
    "4293": " miles",
    "4294": " millions",
    "4295": "uries",
    "4296": " chem",
    "4297": " Justice",
    "4298": " Del",
    "4299": " generally",
    "4300": " basis",
    "4301": " proposed",
    "4302": " 80",
    "4303": " Mike",
    "4304": " Mil",
    "4305": " Cup",
    "4306": "These",
    "4307": "ipe",
    "4308": " heavy",
    "4309": " explained",
    "4310": " map",
    "4311": " Our",
    "4312": "AA",
    "4313": "rad",
    "4314": " der",
    "4315": " bur",
    "4316": "oly",
    "4317": " partners",
    "4318": "ander",
    "4319": " Add",
    "4320": " opinion",
    "4321": "win",
    "4322": " defe",
    "4323": " onto",
    "4324": " protest",
    "4325": "Con",
    "4326": "Get",
    "4327": " associated",
    "4328": " load",
    "4329": "rig",
    "4330": "azing",
    "4331": " NFL",
    "4332": "rate",
    "4333": "oom",
    "4334": "44",
    "4335": " Found",
    "4336": " male",
    "4337": " becomes",
    "4338": " reject",
    "4339": "outhern",
    "4340": " Security",
    "4341": "vest",
    "4342": " coal",
    "4343": " obtain",
    "4344": " destroy",
    "4345": " advantage",
    "4346": " assum",
    "4347": " Liber",
    "4348": " condition",
    "4349": " announce",
    "4350": " hundreds",
    "4351": " achieve",
    "4352": " opened",
    "4353": "eline",
    "4354": " understanding",
    "4355": "odes",
    "4356": " Johnson",
    "4357": "coming",
    "4358": "icip",
    "4359": " surround",
    "4360": "ading",
    "4361": "orthern",
    "4362": "bert",
    "4363": "well",
    "4364": "la",
    "4365": "upp",
    "4366": " initial",
    "4367": " Att",
    "4368": " Big",
    "4369": " sleep",
    "4370": "36",
    "4371": " ship",
    "4372": " marriage",
    "4373": " management",
    "4374": " Windows",
    "4375": " thus",
    "4376": " limit",
    "4377": " born",
    "4378": "32",
    "4379": " becoming",
    "4380": "known",
    "4381": " photo",
    "4382": " easier",
    "4383": "FC",
    "4384": " Great",
    "4385": " rat",
    "4386": " legislation",
    "4387": " controvers",
    "4388": " unlike",
    "4389": " electric",
    "4390": " Many",
    "4391": " camera",
    "4392": "witch",
    "4393": " accused",
    "4394": " spl",
    "4395": " neighbor",
    "4396": " double",
    "4397": " ice",
    "4398": " species",
    "4399": "lant",
    "4400": " shared",
    "4401": " join",
    "4402": " illegal",
    "4403": " 31",
    "4404": " Lab",
    "4405": " 2006",
    "4406": "Mr",
    "4407": " harm",
    "4408": " machine",
    "4409": " served",
    "4410": " Jer",
    "4411": "GB",
    "4412": " extremely",
    "4413": "olf",
    "4414": " active",
    "4415": " 35",
    "4416": " serve",
    "4417": " documents",
    "4418": " Islamic",
    "4419": " frame",
    "4420": "za",
    "4421": " strik",
    "4422": "level",
    "4423": " Dist",
    "4424": " audience",
    "4425": "BS",
    "4426": " location",
    "4427": " AM",
    "4428": " scientists",
    "4429": " bottom",
    "4430": " victims",
    "4431": " Art",
    "4432": "orrow",
    "4433": " wealth",
    "4434": " professional",
    "4435": " resist",
    "4436": "ih",
    "4437": " reduce",
    "4438": " belief",
    "4439": " nine",
    "4440": " solid",
    "4441": " winning",
    "4442": " marijuana",
    "4443": "ears",
    "4444": " Uk",
    "4445": " negative",
    "4446": "75",
    "4447": "iful",
    "4448": " communities",
    "4449": " returned",
    "4450": "ortunately",
    "4451": " bed",
    "4452": "________",
    "4453": " incred",
    "4454": " PM",
    "4455": " Institute",
    "4456": "met",
    "4457": "tered",
    "4458": " church",
    "4459": "PS",
    "4460": " department",
    "4461": "irgin",
    "4462": " Sanders",
    "4463": " ran",
    "4464": " victory",
    "4465": "rey",
    "4466": " purpose",
    "4467": " 90",
    "4468": " Commun",
    "4469": " amb",
    "4470": "lands",
    "4471": "====",
    "4472": " vehicle",
    "4473": " internet",
    "4474": " leadership",
    "4475": "ios",
    "4476": " Hall",
    "4477": "istics",
    "4478": " bomb",
    "4479": " mobile",
    "4480": "ghan",
    "4481": " instance",
    "4482": "ipped",
    "4483": "38",
    "4484": " separate",
    "4485": " existing",
    "4486": " notice",
    "4487": " hearing",
    "4488": " die",
    "4489": " explain",
    "4490": " doubt",
    "4491": " faith",
    "4492": " teach",
    "4493": "house",
    "4494": " Your",
    "4495": "atically",
    "4496": " episode",
    "4497": " watching",
    "4498": " comfort",
    "4499": " Canadian",
    "4500": " Bank",
    "4501": " notes",
    "4502": " radio",
    "4503": " Ev",
    "4504": " fresh",
    "4505": " Fin",
    "4506": " unc",
    "4507": " views",
    "4508": " Inc",
    "4509": " putting",
    "4510": "asy",
    "4511": " supporters",
    "4512": " conservative",
    "4513": " purs",
    "4514": " argument",
    "4515": "omas",
    "4516": " micro",
    "4517": "ario",
    "4518": "acity",
    "4519": " launched",
    "4520": "scrib",
    "4521": "works",
    "4522": "OL",
    "4523": " appeal",
    "4524": "iliar",
    "4525": " items",
    "4526": " committee",
    "4527": "resp",
    "4528": " Mad",
    "4529": "which",
    "4530": " definitely",
    "4531": " dangerous",
    "4532": "iller",
    "4533": "PA",
    "4534": "zen",
    "4535": " coverage",
    "4536": " direction",
    "4537": " Over",
    "4538": " charged",
    "4539": " floor",
    "4540": " sun",
    "4541": " max",
    "4542": "ography",
    "4543": "EM",
    "4544": "34",
    "4545": " Carol",
    "4546": " Church",
    "4547": " Fox",
    "4548": " issued",
    "4549": " drugs",
    "4550": "Image",
    "4551": "ipp",
    "4552": " task",
    "4553": " background",
    "4554": " competition",
    "4555": " trend",
    "4556": " stated",
    "4557": "vention",
    "4558": "andom",
    "4559": "ada",
    "4560": " traffic",
    "4561": " FBI",
    "4562": " commercial",
    "4563": " Direct",
    "4564": "urb",
    "4565": "itt",
    "4566": "NA",
    "4567": " spoke",
    "4568": " sett",
    "4569": "inct",
    "4570": " transfer",
    "4571": " suggested",
    "4572": " structure",
    "4573": " sites",
    "4574": " hus",
    "4575": " north",
    "4576": " Since",
    "4577": " Like",
    "4578": " restaur",
    "4579": "ampionship",
    "4580": " labor",
    "4581": " decade",
    "4582": " repeated",
    "4583": " Game",
    "4584": " react",
    "4585": "oman",
    "4586": " cards",
    "4587": " animals",
    "4588": "going",
    "4589": " novel",
    "4590": "ctors",
    "4591": "but",
    "4592": "ribute",
    "4593": " daughter",
    "4594": "anted",
    "4595": " Sl",
    "4596": " driving",
    "4597": " closed",
    "4598": " worst",
    "4599": " contain",
    "4600": " entirely",
    "4601": " ded",
    "4602": " Britain",
    "4603": "ady",
    "4604": "gency",
    "4605": " driver",
    "4606": " Wil",
    "4607": " disease",
    "4608": " telling",
    "4609": "iling",
    "4610": " smaller",
    "4611": " discovered",
    "4612": " nor",
    "4613": "Bl",
    "4614": "akistan",
    "4615": " refere",
    "4616": " Pri",
    "4617": "Americ",
    "4618": " Los",
    "4619": "ius",
    "4620": " hack",
    "4621": "hem",
    "4622": "equ",
    "4623": "!â",
    "4624": "ference",
    "4625": " Que",
    "4626": "spe",
    "4627": " false",
    "4628": " cash",
    "4629": " concerned",
    "4630": "ulf",
    "4631": " plays",
    "4632": " surface",
    "4633": "semb",
    "4634": " supported",
    "4635": "annel",
    "4636": "ulated",
    "4637": " tools",
    "4638": "oyal",
    "4639": " compar",
    "4640": " transport",
    "4641": " Chris",
    "4642": " experiment",
    "4643": " finding",
    "4644": "night",
    "4645": " categ",
    "4646": "ã",
    "4647": " aspect",
    "4648": "##",
    "4649": " businesses",
    "4650": " 70",
    "4651": " UN",
    "4652": "ait",
    "4653": " farm",
    "4654": " please",
    "4655": " older",
    "4656": "azon",
    "4657": "how",
    "4658": " activities",
    "4659": " requires",
    "4660": "phone",
    "4661": "CH",
    "4662": " gay",
    "4663": " Jones",
    "4664": "do",
    "4665": "ibrary",
    "4666": " strength",
    "4667": "48",
    "4668": " wel",
    "4669": "andon",
    "4670": " insurance",
    "4671": " consequ",
    "4672": "37",
    "4673": " largely",
    "4674": " murder",
    "4675": "NN",
    "4676": "ici",
    "4677": "55",
    "4678": " exerc",
    "4679": " caught",
    "4680": " candidates",
    "4681": "kins",
    "4682": " Israeli",
    "4683": " allowing",
    "4684": "icy",
    "4685": " blue",
    "4686": " Are",
    "4687": " annual",
    "4688": " Ken",
    "4689": " Tre",
    "4690": " testing",
    "4691": "ossible",
    "4692": " strateg",
    "4693": " Sup",
    "4694": " raise",
    "4695": " stock",
    "4696": "arant",
    "4697": "overy",
    "4698": " Robert",
    "4699": "izes",
    "4700": " decisions",
    "4701": " accur",
    "4702": "rick",
    "4703": " context",
    "4704": " fuel",
    "4705": " Ac",
    "4706": "SP",
    "4707": "lor",
    "4708": "osure",
    "4709": " Ukrain",
    "4710": " concern",
    "4711": " afford",
    "4712": " believes",
    "4713": " construction",
    "4714": " truly",
    "4715": " Ty",
    "4716": " Miss",
    "4717": " ge",
    "4718": " justice",
    "4719": "igrants",
    "4720": " generation",
    "4721": " highlight",
    "4722": " unit",
    "4723": "rim",
    "4724": " presence",
    "4725": " Jewish",
    "4726": "anging",
    "4727": "!!",
    "4728": " Sil",
    "4729": "Ð°",
    "4730": "tery",
    "4731": "Ðµ",
    "4732": "ception",
    "4733": " Africa",
    "4734": " guess",
    "4735": "ancy",
    "4736": " witness",
    "4737": "itable",
    "4738": " holding",
    "4739": " Gree",
    "4740": " establish",
    "4741": " length",
    "4742": " planning",
    "4743": "bre",
    "4744": "ava",
    "4745": " African",
    "4746": " sequ",
    "4747": "cknow",
    "4748": " refuge",
    "4749": " placed",
    "4750": " catch",
    "4751": " Afghan",
    "4752": " san",
    "4753": "inter",
    "4754": " Association",
    "4755": " tells",
    "4756": "â",
    "4757": " scale",
    "4758": "ey",
    "4759": " spokesman",
    "4760": " tim",
    "4761": "nel",
    "4762": " rough",
    "4763": " attend",
    "4764": "olly",
    "4765": " Ver",
    "4766": " cells",
    "4767": " joined",
    "4768": " Pre",
    "4769": " mentioned",
    "4770": " interests",
    "4771": " abuse",
    "4772": "pective",
    "4773": " Jim",
    "4774": "More",
    "4775": " hasn",
    "4776": " PC",
    "4777": "Le",
    "4778": " initi",
    "4779": " enforcement",
    "4780": " kid",
    "4781": " GOP",
    "4782": " introduced",
    "4783": " deliver",
    "4784": " conflict",
    "4785": " Mer",
    "4786": "****",
    "4787": " Microsoft",
    "4788": " phil",
    "4789": "ââ",
    "4790": " update",
    "4791": " missing",
    "4792": "ros",
    "4793": " providing",
    "4794": " waiting",
    "4795": " cancer",
    "4796": "39",
    "4797": " recommend",
    "4798": "ocracy",
    "4799": " established",
    "4800": "isation",
    "4801": " eat",
    "4802": "bour",
    "4803": " Yes",
    "4804": " occup",
    "4805": " Frank",
    "4806": " Jeff",
    "4807": " Angeles",
    "4808": " removed",
    "4809": " 2005",
    "4810": "ula",
    "4811": " offensive",
    "4812": " Fore",
    "4813": " Instead",
    "4814": "icon",
    "4815": " injury",
    "4816": " sports",
    "4817": "47",
    "4818": " fant",
    "4819": " discussion",
    "4820": "vant",
    "4821": " operation",
    "4822": " download",
    "4823": " useful",
    "4824": " newsp",
    "4825": " conversation",
    "4826": " homes",
    "4827": "ronic",
    "4828": " south",
    "4829": " cook",
    "4830": " CEO",
    "4831": " assess",
    "4832": " Group",
    "4833": "itz",
    "4834": "formation",
    "4835": "lig",
    "4836": " banks",
    "4837": "onto",
    "4838": " stopped",
    "4839": " Step",
    "4840": " Const",
    "4841": " obvious",
    "4842": "ications",
    "4843": " measures",
    "4844": " models",
    "4845": " Kh",
    "4846": " fourth",
    "4847": " MP",
    "4848": "Our",
    "4849": "season",
    "4850": "DA",
    "4851": "what",
    "4852": " bul",
    "4853": "anda",
    "4854": " 2018",
    "4855": " files",
    "4856": " girls",
    "4857": " Louis",
    "4858": " stick",
    "4859": "cks",
    "4860": "azine",
    "4861": "mail",
    "4862": "umn",
    "4863": " managed",
    "4864": "iter",
    "4865": "apped",
    "4866": " Palestin",
    "4867": "oted",
    "4868": " figures",
    "4869": "oms",
    "4870": " Tim",
    "4871": " Leg",
    "4872": " identified",
    "4873": " graph",
    "4874": " Jud",
    "4875": " Sal",
    "4876": " finished",
    "4877": " funds",
    "4878": "Pl",
    "4879": " Pakistan",
    "4880": "real",
    "4881": " setting",
    "4882": " conclud",
    "4883": " prefer",
    "4884": " hair",
    "4885": " committed",
    "4886": " Mexico",
    "4887": "49",
    "4888": " skills",
    "4889": "kin",
    "4890": " appropri",
    "4891": " spirit",
    "4892": " Rock",
    "4893": " veter",
    "4894": " focused",
    "4895": " arrived",
    "4896": " THE",
    "4897": " housing",
    "4898": " Virgin",
    "4899": " keeping",
    "4900": " therefore",
    "4901": " acknow",
    "4902": " detect",
    "4903": "ulate",
    "4904": "Des",
    "4905": " partner",
    "4906": " exclus",
    "4907": "igan",
    "4908": " Android",
    "4909": "enses",
    "4910": "ups",
    "4911": " earth",
    "4912": " transl",
    "4913": "outs",
    "4914": "place",
    "4915": " tough",
    "4916": " Japanese",
    "4917": " 2000",
    "4918": " relatively",
    "4919": "Ã¡",
    "4920": " Supreme",
    "4921": "owl",
    "4922": "wing",
    "4923": " identity",
    "4924": " feels",
    "4925": "rd",
    "4926": " Met",
    "4927": " otherwise",
    "4928": " survey",
    "4929": "RA",
    "4930": " Ryan",
    "4931": "ocal",
    "4932": "ication",
    "4933": "itutional",
    "4934": " protection",
    "4935": "agn",
    "4936": " exchange",
    "4937": " owner",
    "4938": "isf",
    "4939": "Trump",
    "4940": " steps",
    "4941": " Inter",
    "4942": " trip",
    "4943": "imb",
    "4944": " husband",
    "4945": " Mont",
    "4946": " tweet",
    "4947": " connection",
    "4948": " Army",
    "4949": " slightly",
    "4950": " Prof",
    "4951": "eah",
    "4952": "ka",
    "4953": " weak",
    "4954": " Government",
    "4955": "verse",
    "4956": "\":",
    "4957": " circum",
    "4958": " elements",
    "4959": " click",
    "4960": " Richard",
    "4961": " strike",
    "4962": " photos",
    "4963": "ga",
    "4964": " mere",
    "4965": " defensive",
    "4966": "dden",
    "4967": "gar",
    "4968": " gain",
    "4969": " fle",
    "4970": " depend",
    "4971": "ucky",
    "4972": " collection",
    "4973": "onym",
    "4974": "hens",
    "4975": " killing",
    "4976": " roll",
    "4977": "ighter",
    "4978": "Go",
    "4979": " corner",
    "4980": " Martin",
    "4981": "ancing",
    "4982": "odies",
    "4983": " suggests",
    "4984": "uct",
    "4985": " aggress",
    "4986": "with",
    "4987": "prof",
    "4988": " guard",
    "4989": "Photo",
    "4990": " gender",
    "4991": "makers",
    "4992": " College",
    "4993": " commission",
    "4994": " Although",
    "4995": "range",
    "4996": " dat",
    "4997": " Sur",
    "4998": "46",
    "4999": " Ir",
    "5000": " Dec",
    "5001": " mental",
    "5002": "icide",
    "5003": " amazing",
    "5004": "rees",
    "5005": " Sub",
    "5006": "hi",
    "5007": " planet",
    "5008": " Team",
    "5009": "rency",
    "5010": " Out",
    "5011": " bigger",
    "5012": " failure",
    "5013": "ym",
    "5014": " Jose",
    "5015": " supply",
    "5016": "Why",
    "5017": "ania",
    "5018": " Nor",
    "5019": " starts",
    "5020": "gers",
    "5021": " sides",
    "5022": "hedul",
    "5023": "iser",
    "5024": " familiar",
    "5025": " remind",
    "5026": " sust",
    "5027": " spect",
    "5028": "ils",
    "5029": "uate",
    "5030": " speaking",
    "5031": "ano",
    "5032": " talks",
    "5033": " happening",
    "5034": "mas",
    "5035": "gypt",
    "5036": " organizations",
    "5037": " hate",
    "5038": " window",
    "5039": " army",
    "5040": " Good",
    "5041": " Joe",
    "5042": " none",
    "5043": "uke",
    "5044": " taxes",
    "5045": " planned",
    "5046": " Pet",
    "5047": " thanks",
    "5048": " Mary",
    "5049": " struct",
    "5050": " pit",
    "5051": " decide",
    "5052": " sudden",
    "5053": " wish",
    "5054": "lo",
    "5055": " crew",
    "5056": " carried",
    "5057": " appoint",
    "5058": "oston",
    "5059": " pet",
    "5060": "awn",
    "5061": "eless",
    "5062": "agues",
    "5063": "ynam",
    "5064": "TC",
    "5065": " regist",
    "5066": " multi",
    "5067": "idering",
    "5068": " helping",
    "5069": "Last",
    "5070": " award",
    "5071": " standards",
    "5072": " 32",
    "5073": " Fire",
    "5074": " revolution",
    "5075": " environmental",
    "5076": "].",
    "5077": " Web",
    "5078": "arsh",
    "5079": " Thomas",
    "5080": "olit",
    "5081": " script",
    "5082": "pm",
    "5083": "ola",
    "5084": " seconds",
    "5085": "run",
    "5086": "gn",
    "5087": " Research",
    "5088": " scientific",
    "5089": " Bern",
    "5090": " immigration",
    "5091": " standing",
    "5092": " Their",
    "5093": " 45",
    "5094": "stream",
    "5095": "ocol",
    "5096": " que",
    "5097": " beer",
    "5098": " domestic",
    "5099": "imal",
    "5100": "adium",
    "5101": " pair",
    "5102": "uters",
    "5103": " Also",
    "5104": " Secretary",
    "5105": " Us",
    "5106": " academ",
    "5107": " cold",
    "5108": " variety",
    "5109": " markets",
    "5110": " sch",
    "5111": "fe",
    "5112": "HL",
    "5113": " territ",
    "5114": " dropped",
    "5115": " accounts",
    "5116": "!\"",
    "5117": " Atlant",
    "5118": " filed",
    "5119": "erous",
    "5120": "acks",
    "5121": "illa",
    "5122": " balance",
    "5123": " impossible",
    "5124": " Ter",
    "5125": "aven",
    "5126": " interact",
    "5127": " neighborhood",
    "5128": " degree",
    "5129": "Read",
    "5130": " turns",
    "5131": "ores",
    "5132": "itect",
    "5133": " possibly",
    "5134": " appre",
    "5135": " operating",
    "5136": " princ",
    "5137": " alternative",
    "5138": " union",
    "5139": " votes",
    "5140": " vul",
    "5141": "ader",
    "5142": " professor",
    "5143": " tack",
    "5144": " Service",
    "5145": " increasingly",
    "5146": "ayer",
    "5147": "ruit",
    "5148": " apply",
    "5149": " fellow",
    "5150": " cuts",
    "5151": "stein",
    "5152": " honest",
    "5153": " Prime",
    "5154": " univers",
    "5155": " server",
    "5156": "vis",
    "5157": " developers",
    "5158": "arks",
    "5159": " Syrian",
    "5160": " apparently",
    "5161": "abb",
    "5162": "aren",
    "5163": " lived",
    "5164": " changing",
    "5165": " worry",
    "5166": "rastructure",
    "5167": " Carolina",
    "5168": " tests",
    "5169": " units",
    "5170": " rich",
    "5171": " Two",
    "5172": "cious",
    "5173": "icted",
    "5174": "From",
    "5175": "aded",
    "5176": " humans",
    "5177": "IM",
    "5178": " Foundation",
    "5179": " Mos",
    "5180": " agencies",
    "5181": " sounds",
    "5182": "ashed",
    "5183": " twice",
    "5184": " ultimately",
    "5185": "obby",
    "5186": " losing",
    "5187": " philos",
    "5188": " authority",
    "5189": " soldiers",
    "5190": "ã",
    "5191": " animal",
    "5192": "gu",
    "5193": " Images",
    "5194": " settle",
    "5195": " ath",
    "5196": " schedul",
    "5197": " mut",
    "5198": " colle",
    "5199": " corporate",
    "5200": " absolutely",
    "5201": " healthy",
    "5202": " paying",
    "5203": "och",
    "5204": " equip",
    "5205": "iams",
    "5206": " developing",
    "5207": " sea",
    "5208": " Time",
    "5209": " closer",
    "5210": " Den",
    "5211": " innov",
    "5212": "related",
    "5213": " seeking",
    "5214": " regarding",
    "5215": "coh",
    "5216": "roud",
    "5217": " skin",
    "5218": " expensive",
    "5219": "ansion",
    "5220": " possibility",
    "5221": " beautiful",
    "5222": " religion",
    "5223": " apart",
    "5224": " Central",
    "5225": " fundament",
    "5226": " experts",
    "5227": " solar",
    "5228": "65",
    "5229": " yards",
    "5230": " vast",
    "5231": " writer",
    "5232": " flight",
    "5233": " District",
    "5234": " Last",
    "5235": " deploy",
    "5236": " adjust",
    "5237": "Of",
    "5238": " internal",
    "5239": " tast",
    "5240": " Under",
    "5241": " Lat",
    "5242": "31",
    "5243": " Peter",
    "5244": "apers",
    "5245": " imagine",
    "5246": " Jon",
    "5247": "IV",
    "5248": " applications",
    "5249": "iot",
    "5250": "ologies",
    "5251": " vision",
    "5252": "look",
    "5253": "state",
    "5254": "osen",
    "5255": " Francisco",
    "5256": " Toronto",
    "5257": "den",
    "5258": " sitting",
    "5259": " Plan",
    "5260": " trail",
    "5261": " unless",
    "5262": " USA",
    "5263": " Jes",
    "5264": "isted",
    "5265": " heat",
    "5266": " 2004",
    "5267": "Even",
    "5268": " responsibility",
    "5269": " capacity",
    "5270": "IP",
    "5271": "atures",
    "5272": " Middle",
    "5273": " error",
    "5274": "aine",
    "5275": "ias",
    "5276": " symb",
    "5277": " fol",
    "5278": " arms",
    "5279": " pil",
    "5280": " gar",
    "5281": "pire",
    "5282": " covered",
    "5283": "idden",
    "5284": " Bur",
    "5285": " famous",
    "5286": " Camp",
    "5287": " forms",
    "5288": "uzz",
    "5289": "ND",
    "5290": " university",
    "5291": " guarant",
    "5292": " tight",
    "5293": " presented",
    "5294": "ortion",
    "5295": "oving",
    "5296": "enced",
    "5297": " ST",
    "5298": " Egypt",
    "5299": " earn",
    "5300": " Put",
    "5301": " convention",
    "5302": "under",
    "5303": "Just",
    "5304": " Public",
    "5305": " surprise",
    "5306": " attorney",
    "5307": " elections",
    "5308": " estimated",
    "5309": " fif",
    "5310": " Ari",
    "5311": " teen",
    "5312": " instit",
    "5313": " vehicles",
    "5314": "rible",
    "5315": " Amazon",
    "5316": "road",
    "5317": " intended",
    "5318": " rid",
    "5319": " odd",
    "5320": " helps",
    "5321": " occurred",
    "5322": "person",
    "5323": " streets",
    "5324": "uster",
    "5325": "hand",
    "5326": "ini",
    "5327": " Boston",
    "5328": " Sol",
    "5329": " =>",
    "5330": "=\"",
    "5331": " Mur",
    "5332": " sport",
    "5333": "sen",
    "5334": " determine",
    "5335": "ressive",
    "5336": " Bitcoin",
    "5337": " expert",
    "5338": "alls",
    "5339": " consult",
    "5340": "uration",
    "5341": " broken",
    "5342": "Let",
    "5343": "lets",
    "5344": " fired",
    "5345": " ton",
    "5346": " flow",
    "5347": " domin",
    "5348": " Gal",
    "5349": "porary",
    "5350": "eder",
    "5351": "LE",
    "5352": " shall",
    "5353": " reserv",
    "5354": "Up",
    "5355": " troops",
    "5356": "ION",
    "5357": " Those",
    "5358": " hyp",
    "5359": " nar",
    "5360": "terday",
    "5361": " pieces",
    "5362": " Chief",
    "5363": " prepared",
    "5364": " Mass",
    "5365": " Cath",
    "5366": " rapid",
    "5367": "gl",
    "5368": "orage",
    "5369": " Jo",
    "5370": " located",
    "5371": " Social",
    "5372": " baby",
    "5373": " conclus",
    "5374": " bringing",
    "5375": "anche",
    "5376": " Prot",
    "5377": " prove",
    "5378": " specifically",
    "5379": " Any",
    "5380": " potentially",
    "5381": " sector",
    "5382": " random",
    "5383": " jail",
    "5384": "OW",
    "5385": " selling",
    "5386": " governments",
    "5387": " Once",
    "5388": " scr",
    "5389": "Ab",
    "5390": " equal",
    "5391": "class",
    "5392": "war",
    "5393": " faster",
    "5394": " heav",
    "5395": " Spr",
    "5396": " boost",
    "5397": "useum",
    "5398": "vey",
    "5399": " clin",
    "5400": " proposal",
    "5401": "oty",
    "5402": " factors",
    "5403": " plenty",
    "5404": "TH",
    "5405": " equipment",
    "5406": " council",
    "5407": " era",
    "5408": " infrastructure",
    "5409": "Do",
    "5410": " stress",
    "5411": "phas",
    "5412": " stars",
    "5413": " Journal",
    "5414": " Rub",
    "5415": "endment",
    "5416": " Virginia",
    "5417": " breat",
    "5418": " prosecut",
    "5419": " voted",
    "5420": " offering",
    "5421": " carbon",
    "5422": "inent",
    "5423": " expressed",
    "5424": " vulner",
    "5425": " combat",
    "5426": " Paris",
    "5427": " broke",
    "5428": "()",
    "5429": "ureau",
    "5430": " clot",
    "5431": "ours",
    "5432": " ruling",
    "5433": " Federal",
    "5434": " retail",
    "5435": " Guard",
    "5436": " refused",
    "5437": " dram",
    "5438": " Dan",
    "5439": " elected",
    "5440": " Open",
    "5441": " River",
    "5442": "Every",
    "5443": " secure",
    "5444": "cean",
    "5445": " seasons",
    "5446": " conducted",
    "5447": ",'",
    "5448": "ht",
    "5449": " challenges",
    "5450": " remove",
    "5451": "isher",
    "5452": " Sant",
    "5453": " methods",
    "5454": " weapon",
    "5455": "noon",
    "5456": " pointed",
    "5457": " Island",
    "5458": " master",
    "5459": " remained",
    "5460": " Australian",
    "5461": " prime",
    "5462": "ENT",
    "5463": " trig",
    "5464": " positions",
    "5465": " Cru",
    "5466": " din",
    "5467": " Mel",
    "5468": " criticism",
    "5469": "ipping",
    "5470": "First",
    "5471": "ocking",
    "5472": " Medic",
    "5473": " Please",
    "5474": "rog",
    "5475": "onom",
    "5476": "IG",
    "5477": " sale",
    "5478": "olved",
    "5479": " Fe",
    "5480": " cultural",
    "5481": "that",
    "5482": " weren",
    "5483": " significantly",
    "5484": " brow",
    "5485": "etic",
    "5486": " originally",
    "5487": "rie",
    "5488": " During",
    "5489": " affected",
    "5490": " appearance",
    "5491": " cas",
    "5492": " tourn",
    "5493": " facing",
    "5494": " greatest",
    "5495": " finish",
    "5496": " Lee",
    "5497": " stret",
    "5498": "yr",
    "5499": " youth",
    "5500": " tele",
    "5501": " Who",
    "5502": " Cur",
    "5503": " percentage",
    "5504": " Photo",
    "5505": "col",
    "5506": " determined",
    "5507": " signs",
    "5508": " involve",
    "5509": "95",
    "5510": "cel",
    "5511": "Ð¸",
    "5512": "64",
    "5513": " thank",
    "5514": " bought",
    "5515": " 500",
    "5516": "lyn",
    "5517": " Sing",
    "5518": "standing",
    "5519": " chemical",
    "5520": "ashion",
    "5521": " shape",
    "5522": " vir",
    "5523": " regime",
    "5524": " grew",
    "5525": "pired",
    "5526": " remaining",
    "5527": " Steve",
    "5528": "lymp",
    "5529": " minimum",
    "5530": " Saud",
    "5531": "reens",
    "5532": " indeed",
    "5533": " dream",
    "5534": "rier",
    "5535": "Since",
    "5536": " marg",
    "5537": "Sp",
    "5538": " Both",
    "5539": ">>",
    "5540": " mode",
    "5541": " herself",
    "5542": " voting",
    "5543": " Color",
    "5544": " obviously",
    "5545": " Force",
    "5546": " reduced",
    "5547": "ordin",
    "5548": " Nov",
    "5549": " wood",
    "5550": " Rem",
    "5551": " recorded",
    "5552": " argued",
    "5553": " 1990",
    "5554": " revenue",
    "5555": " tact",
    "5556": " Ro",
    "5557": " wearing",
    "5558": "aling",
    "5559": "ighters",
    "5560": " leads",
    "5561": "edia",
    "5562": " hun",
    "5563": " politicians",
    "5564": " plus",
    "5565": " contrast",
    "5566": " switch",
    "5567": " handle",
    "5568": " purchase",
    "5569": " thr",
    "5570": " subs",
    "5571": " concent",
    "5572": " proced",
    "5573": "Ñ",
    "5574": " agent",
    "5575": "arp",
    "5576": " Williams",
    "5577": " appreci",
    "5578": " experienced",
    "5579": " hurt",
    "5580": "top",
    "5581": " excited",
    "5582": " videos",
    "5583": " https",
    "5584": "cohol",
    "5585": " supporting",
    "5586": "DP",
    "5587": " Haw",
    "5588": "mm",
    "5589": "ownt",
    "5590": " Free",
    "5591": " surprising",
    "5592": " minute",
    "5593": "odd",
    "5594": " explos",
    "5595": " belong",
    "5596": " consumers",
    "5597": " identify",
    "5598": " considering",
    "5599": " Pac",
    "5600": " Conserv",
    "5601": "ller",
    "5602": "apter",
    "5603": " aircraft",
    "5604": " rent",
    "5605": " aid",
    "5606": "CL",
    "5607": " pulled",
    "5608": "gment",
    "5609": " basically",
    "5610": " differences",
    "5611": "ogue",
    "5612": " Book",
    "5613": " glass",
    "5614": " afternoon",
    "5615": " shift",
    "5616": " diss",
    "5617": " Rad",
    "5618": " depart",
    "5619": " ends",
    "5620": "essions",
    "5621": " turning",
    "5622": " bound",
    "5623": " films",
    "5624": " spring",
    "5625": " prospect",
    "5626": "ruption",
    "5627": "ket",
    "5628": " Charl",
    "5629": "hab",
    "5630": " mort",
    "5631": "05",
    "5632": "life",
    "5633": " treated",
    "5634": " accident",
    "5635": ",[",
    "5636": "01",
    "5637": " motiv",
    "5638": " listen",
    "5639": " seat",
    "5640": " Power",
    "5641": "uts",
    "5642": " combined",
    "5643": " construct",
    "5644": "Ind",
    "5645": " seriously",
    "5646": " privacy",
    "5647": "apping",
    "5648": " evening",
    "5649": "hered",
    "5650": "hy",
    "5651": " opportunities",
    "5652": "asp",
    "5653": " struggle",
    "5654": " 195",
    "5655": " panel",
    "5656": " enemy",
    "5657": " lots",
    "5658": " completed",
    "5659": " Daily",
    "5660": " visual",
    "5661": "His",
    "5662": "Phone",
    "5663": "pet",
    "5664": " talked",
    "5665": " cart",
    "5666": " hopes",
    "5667": "oral",
    "5668": " passing",
    "5669": " id",
    "5670": " apps",
    "5671": "osite",
    "5672": "PD",
    "5673": " calcul",
    "5674": "Another",
    "5675": " widely",
    "5676": "ensions",
    "5677": " emergency",
    "5678": " Hol",
    "5679": " Show",
    "5680": " suit",
    "5681": " element",
    "5682": "amm",
    "5683": " ast",
    "5684": "anged",
    "5685": "SS",
    "5686": "aled",
    "5687": "ucks",
    "5688": " powers",
    "5689": "ato",
    "5690": " Rel",
    "5691": " BBC",
    "5692": " Olymp",
    "5693": " burn",
    "5694": "TV",
    "5695": " discl",
    "5696": "Pe",
    "5697": " plants",
    "5698": " flat",
    "5699": " Space",
    "5700": " liberal",
    "5701": "raud",
    "5702": "obe",
    "5703": " opposed",
    "5704": "Well",
    "5705": " proceed",
    "5706": "ompl",
    "5707": " copyright",
    "5708": "oking",
    "5709": " Project",
    "5710": " advance",
    "5711": " factor",
    "5712": " distance",
    "5713": " 2003",
    "5714": "ivered",
    "5715": " dismiss",
    "5716": "plom",
    "5717": " attempts",
    "5718": " tun",
    "5719": " Matt",
    "5720": " Road",
    "5721": "abilities",
    "5722": "Am",
    "5723": "ributed",
    "5724": " IN",
    "5725": " trouble",
    "5726": "unction",
    "5727": " hol",
    "5728": " collabor",
    "5729": " default",
    "5730": "sts",
    "5731": "idel",
    "5732": " Bet",
    "5733": " zone",
    "5734": " Jackson",
    "5735": " upgr",
    "5736": "rawn",
    "5737": "ita",
    "5738": "Cont",
    "5739": " reaction",
    "5740": " storm",
    "5741": " reporters",
    "5742": " Mem",
    "5743": " frust",
    "5744": "PR",
    "5745": "nell",
    "5746": "mosp",
    "5747": "adow",
    "5748": " writes",
    "5749": "mond",
    "5750": "aints",
    "5751": " typically",
    "5752": " Today",
    "5753": "lines",
    "5754": "respond",
    "5755": "UT",
    "5756": " pages",
    "5757": " instruct",
    "5758": "ternal",
    "5759": "eds",
    "5760": " reference",
    "5761": " package",
    "5762": " bodies",
    "5763": "zer",
    "5764": " matters",
    "5765": "free",
    "5766": "42",
    "5767": " denied",
    "5768": "care",
    "5769": "edd",
    "5770": "App",
    "5771": " quant",
    "5772": " disappoint",
    "5773": " sem",
    "5774": " explo",
    "5775": " NAS",
    "5776": " optim",
    "5777": "ache",
    "5778": " quiet",
    "5779": " entertain",
    "5780": " mal",
    "5781": " responded",
    "5782": " approved",
    "5783": " Turkey",
    "5784": " satisf",
    "5785": "aped",
    "5786": " broadcast",
    "5787": "esters",
    "5788": " institutions",
    "5789": " advert",
    "5790": " stands",
    "5791": " Director",
    "5792": " sets",
    "5793": "estival",
    "5794": " elimin",
    "5795": "isters",
    "5796": "razy",
    "5797": "Ã¤",
    "5798": "Rep",
    "5799": " Penn",
    "5800": " valid",
    "5801": "host",
    "5802": " renew",
    "5803": " Ohio",
    "5804": "elly",
    "5805": " split",
    "5806": " severe",
    "5807": " William",
    "5808": " sac",
    "5809": " capable",
    "5810": " 2001",
    "5811": " pitch",
    "5812": " //",
    "5813": "abin",
    "5814": "aniel",
    "5815": " caption",
    "5816": " cloud",
    "5817": " loved",
    "5818": " technical",
    "5819": " giant",
    "5820": "pass",
    "5821": " cann",
    "5822": " tradition",
    "5823": "rant",
    "5824": " prompt",
    "5825": " bull",
    "5826": " confident",
    "5827": "uous",
    "5828": " confidence",
    "5829": " numerous",
    "5830": " reportedly",
    "5831": " Ma",
    "5832": " faces",
    "5833": "],",
    "5834": "writ",
    "5835": " weather",
    "5836": " fly",
    "5837": " transition",
    "5838": "rid",
    "5839": " 36",
    "5840": " System",
    "5841": " Afghanistan",
    "5842": " gra",
    "5843": " Squ",
    "5844": " creation",
    "5845": "De",
    "5846": " perspective",
    "5847": " unable",
    "5848": " forget",
    "5849": " Labour",
    "5850": " Yet",
    "5851": "43",
    "5852": "astern",
    "5853": "employ",
    "5854": "oken",
    "5855": " Media",
    "5856": "angers",
    "5857": "II",
    "5858": "unte",
    "5859": " craft",
    "5860": " substant",
    "5861": " cooper",
    "5862": " violent",
    "5863": " suffered",
    "5864": "ilit",
    "5865": " coast",
    "5866": " mand",
    "5867": "ampion",
    "5868": " pictures",
    "5869": " experiences",
    "5870": " approx",
    "5871": "abled",
    "5872": " route",
    "5873": "88",
    "5874": "sex",
    "5875": " flag",
    "5876": " advice",
    "5877": " Andrew",
    "5878": "usiness",
    "5879": " declared",
    "5880": " Wal",
    "5881": " ordered",
    "5882": " Human",
    "5883": "razil",
    "5884": " crimes",
    "5885": " coff",
    "5886": "Se",
    "5887": " proud",
    "5888": "ishes",
    "5889": " reporting",
    "5890": " messages",
    "5891": " circumst",
    "5892": " findings",
    "5893": " Lin",
    "5894": "Res",
    "5895": " eval",
    "5896": "ulations",
    "5897": " excell",
    "5898": "Over",
    "5899": " declined",
    "5900": " explains",
    "5901": " delay",
    "5902": " \\",
    "5903": " Follow",
    "5904": " newspaper",
    "5905": "ounded",
    "5906": " connected",
    "5907": "ilty",
    "5908": " shouldn",
    "5909": "evin",
    "5910": "oves",
    "5911": " ongoing",
    "5912": "can",
    "5913": " van",
    "5914": "dule",
    "5915": " movies",
    "5916": " picked",
    "5917": "ionally",
    "5918": "resents",
    "5919": "77",
    "5920": " admitted",
    "5921": " delivered",
    "5922": "During",
    "5923": " guns",
    "5924": " ML",
    "5925": " Scot",
    "5926": " walking",
    "5927": " agents",
    "5928": "called",
    "5929": " prin",
    "5930": "tion",
    "5931": " editor",
    "5932": " thoughts",
    "5933": " married",
    "5934": " Tra",
    "5935": " auth",
    "5936": " emails",
    "5937": " appropriate",
    "5938": " emphas",
    "5939": "uations",
    "5940": " edge",
    "5941": " architect",
    "5942": " Grand",
    "5943": " leaves",
    "5944": " updates",
    "5945": " accompl",
    "5946": "OD",
    "5947": " gather",
    "5948": " Muslims",
    "5949": " forg",
    "5950": "ansas",
    "5951": " Wood",
    "5952": " quarterback",
    "5953": " session",
    "5954": "ooth",
    "5955": "41",
    "5956": " Techn",
    "5957": " pool",
    "5958": " Science",
    "5959": "cos",
    "5960": " injured",
    "5961": "arn",
    "5962": " publicly",
    "5963": "ellow",
    "5964": " Sov",
    "5965": " statements",
    "5966": " perman",
    "5967": " legit",
    "5968": "arl",
    "5969": "nergy",
    "5970": "MA",
    "5971": " confirm",
    "5972": " Lake",
    "5973": " ourselves",
    "5974": "Other",
    "5975": " realize",
    "5976": " rot",
    "5977": " drivers",
    "5978": " Av",
    "5979": " Dou",
    "5980": "TA",
    "5981": "mates",
    "5982": ",â",
    "5983": " armed",
    "5984": "essor",
    "5985": " dial",
    "5986": "cons",
    "5987": " lawyer",
    "5988": "----------------",
    "5989": "ourney",
    "5990": " rail",
    "5991": " readers",
    "5992": "reland",
    "5993": " sad",
    "5994": " contains",
    "5995": " argue",
    "5996": " Rev",
    "5997": " talent",
    "5998": " filled",
    "5999": " Sum",
    "6000": " allegations",
    "6001": " activists",
    "6002": " Christmas",
    "6003": " dynam",
    "6004": " 1980",
    "6005": " Michigan",
    "6006": "date",
    "6007": " Back",
    "6008": " Ron",
    "6009": " crack",
    "6010": " transform",
    "6011": "Tube",
    "6012": " Ill",
    "6013": " buildings",
    "6014": " Read",
    "6015": "long",
    "6016": " wear",
    "6017": "Many",
    "6018": " terrorist",
    "6019": " sam",
    "6020": " tree",
    "6021": " exercise",
    "6022": "enda",
    "6023": " label",
    "6024": " effectively",
    "6025": "Oh",
    "6026": " practices",
    "6027": "ala",
    "6028": " subsequ",
    "6029": " Jul",
    "6030": " Sher",
    "6031": "uls",
    "6032": " flo",
    "6033": "TS",
    "6034": " fish",
    "6035": "ette",
    "6036": "enture",
    "6037": " shop",
    "6038": " examples",
    "6039": " Hy",
    "6040": " patient",
    "6041": " Gen",
    "6042": " Seattle",
    "6043": " objects",
    "6044": " tech",
    "6045": " See",
    "6046": " secretary",
    "6047": "asure",
    "6048": " rain",
    "6049": " missed",
    "6050": " causes",
    "6051": "illy",
    "6052": "rum",
    "6053": " debut",
    "6054": " Rod",
    "6055": "gia",
    "6056": " essentially",
    "6057": "66",
    "6058": "amin",
    "6059": " moral",
    "6060": "orders",
    "6061": "ador",
    "6062": "word",
    "6063": "acter",
    "6064": " Work",
    "6065": "def",
    "6066": "arters",
    "6067": " Ukraine",
    "6068": " centre",
    "6069": "Follow",
    "6070": " Vict",
    "6071": "bur",
    "6072": " Stan",
    "6073": " ID",
    "6074": "icing",
    "6075": " injuries",
    "6076": " Phot",
    "6077": " motor",
    "6078": " iPhone",
    "6079": " artist",
    "6080": " client",
    "6081": " bond",
    "6082": " thinks",
    "6083": "iat",
    "6084": "orse",
    "6085": "ouston",
    "6086": " pure",
    "6087": " hell",
    "6088": "Although",
    "6089": " Saudi",
    "6090": " facts",
    "6091": "¬",
    "6092": " desire",
    "6093": "agers",
    "6094": "aza",
    "6095": " ske",
    "6096": "orry",
    "6097": " linked",
    "6098": "Ã­",
    "6099": "0000",
    "6100": " governor",
    "6101": " materials",
    "6102": " performed",
    "6103": "Spe",
    "6104": " franch",
    "6105": "esome",
    "6106": " suc",
    "6107": " philosoph",
    "6108": " initially",
    "6109": "iest",
    "6110": " Sign",
    "6111": " necessarily",
    "6112": " Bat",
    "6113": " Fer",
    "6114": " expansion",
    "6115": " scheduled",
    "6116": "water",
    "6117": "ERS",
    "6118": " warned",
    "6119": " diplom",
    "6120": " advanced",
    "6121": " ing",
    "6122": " explan",
    "6123": " vari",
    "6124": " everybody",
    "6125": " joint",
    "6126": " decre",
    "6127": " resolution",
    "6128": " increases",
    "6129": "enger",
    "6130": "Yes",
    "6131": " accepted",
    "6132": " incor",
    "6133": " myster",
    "6134": " faced",
    "6135": " bare",
    "6136": "illance",
    "6137": " Mount",
    "6138": " announcement",
    "6139": " follows",
    "6140": " nations",
    "6141": " playoff",
    "6142": " Life",
    "6143": " abandon",
    "6144": " Second",
    "6145": " radical",
    "6146": " athlet",
    "6147": " neither",
    "6148": " yesterday",
    "6149": "gent",
    "6150": " datab",
    "6151": " nearby",
    "6152": " distribution",
    "6153": "otic",
    "6154": " applied",
    "6155": "irty",
    "6156": " magazine",
    "6157": "Most",
    "6158": "athan",
    "6159": "rich",
    "6160": " mir",
    "6161": " consequences",
    "6162": " doctor",
    "6163": " listed",
    "6164": " fort",
    "6165": "uy",
    "6166": " Columb",
    "6167": " atmosp",
    "6168": "American",
    "6169": " surprised",
    "6170": " offense",
    "6171": "Qu",
    "6172": "itors",
    "6173": " CNN",
    "6174": " RE",
    "6175": " spons",
    "6176": " begins",
    "6177": " Week",
    "6178": " threats",
    "6179": "sembly",
    "6180": " represents",
    "6181": " Jews",
    "6182": " GM",
    "6183": " Aff",
    "6184": " enh",
    "6185": " moves",
    "6186": " remark",
    "6187": " TO",
    "6188": " pra",
    "6189": " songs",
    "6190": "kay",
    "6191": " chart",
    "6192": " behavi",
    "6193": "omin",
    "6194": " ride",
    "6195": " adds",
    "6196": " withd",
    "6197": "Can",
    "6198": "Ã",
    "6199": " improved",
    "6200": " phen",
    "6201": " Blue",
    "6202": " bot",
    "6203": " warm",
    "6204": " af",
    "6205": " alcohol",
    "6206": "rip",
    "6207": " AT",
    "6208": " output",
    "6209": "law",
    "6210": " flood",
    "6211": " Develop",
    "6212": " Hen",
    "6213": "whel",
    "6214": "edy",
    "6215": " shots",
    "6216": " fill",
    "6217": " Vol",
    "6218": " alt",
    "6219": " stood",
    "6220": " brings",
    "6221": " pushed",
    "6222": " guilty",
    "6223": " Romney",
    "6224": " Kim",
    "6225": " subscrib",
    "6226": "85",
    "6227": " entry",
    "6228": "ocratic",
    "6229": " Brazil",
    "6230": " democracy",
    "6231": " boys",
    "6232": " 33",
    "6233": " row",
    "6234": " Swed",
    "6235": " config",
    "6236": " restaurant",
    "6237": " NBA",
    "6238": " lawsuit",
    "6239": " Dev",
    "6240": " Ireland",
    "6241": "acle",
    "6242": " manufacture",
    "6243": " receiving",
    "6244": " rein",
    "6245": " Barack",
    "6246": "Then",
    "6247": " trib",
    "6248": " totally",
    "6249": " Only",
    "6250": " discussed",
    "6251": " sought",
    "6252": " rising",
    "6253": " entered",
    "6254": " ISIS",
    "6255": " Board",
    "6256": " consistent",
    "6257": " historical",
    "6258": "twitter",
    "6259": "ideo",
    "6260": " storage",
    "6261": " correspond",
    "6262": " plane",
    "6263": " combination",
    "6264": " scored",
    "6265": " input",
    "6266": " 300",
    "6267": " symbol",
    "6268": " bright",
    "6269": " button",
    "6270": "irds",
    "6271": " succeed",
    "6272": "stood",
    "6273": " creative",
    "6274": " investors",
    "6275": " square",
    "6276": " articles",
    "6277": " 2002",
    "6278": " island",
    "6279": "mes",
    "6280": " deaths",
    "6281": " functions",
    "6282": " networks",
    "6283": " classes",
    "6284": " unlikely",
    "6285": "alty",
    "6286": " heads",
    "6287": "ician",
    "6288": " boss",
    "6289": " native",
    "6290": "icious",
    "6291": " lie",
    "6292": " sav",
    "6293": " Lib",
    "6294": " roughly",
    "6295": " consumer",
    "6296": " Str",
    "6297": " Whe",
    "6298": " Walk",
    "6299": " Prem",
    "6300": "fortunately",
    "6301": " Ms",
    "6302": " string",
    "6303": " Maybe",
    "6304": " heavily",
    "6305": " Another",
    "6306": " fairly",
    "6307": " temperature",
    "6308": "arden",
    "6309": " kit",
    "6310": " existence",
    "6311": " Its",
    "6312": " Asia",
    "6313": " contest",
    "6314": "Add",
    "6315": " plot",
    "6316": "issions",
    "6317": "dis",
    "6318": " Cub",
    "6319": " resident",
    "6320": "usal",
    "6321": " targets",
    "6322": " Bob",
    "6323": " resc",
    "6324": " Korean",
    "6325": "ican",
    "6326": "duc",
    "6327": " lock",
    "6328": " younger",
    "6329": "Man",
    "6330": "',",
    "6331": " colleagues",
    "6332": "PU",
    "6333": " library",
    "6334": "Ã¶",
    "6335": " rally",
    "6336": " parliament",
    "6337": " protests",
    "6338": " anywhere",
    "6339": "oked",
    "6340": " Sports",
    "6341": " Sky",
    "6342": " bike",
    "6343": "zona",
    "6344": " breaking",
    "6345": "ii",
    "6346": " grab",
    "6347": " sym",
    "6348": " stores",
    "6349": " expression",
    "6350": " waste",
    "6351": " chain",
    "6352": " blow",
    "6353": " warning",
    "6354": " importance",
    "6355": " defined",
    "6356": " buying",
    "6357": " manage",
    "6358": " prohib",
    "6359": " classic",
    "6360": " cere",
    "6361": " snow",
    "6362": " adults",
    "6363": " illust",
    "6364": " Each",
    "6365": "See",
    "6366": " marketing",
    "6367": "Ob",
    "6368": " links",
    "6369": "Ã³",
    "6370": "iques",
    "6371": " shif",
    "6372": "born",
    "6373": "andal",
    "6374": " Club",
    "6375": " tow",
    "6376": " Hist",
    "6377": " fraud",
    "6378": "OC",
    "6379": " facility",
    "6380": "ollywood",
    "6381": "erences",
    "6382": " hardware",
    "6383": " schol",
    "6384": " allegedly",
    "6385": " 37",
    "6386": " regulations",
    "6387": "pret",
    "6388": " doctors",
    "6389": " bon",
    "6390": " Colorado",
    "6391": " currency",
    "6392": " household",
    "6393": " replaced",
    "6394": "agan",
    "6395": " essential",
    "6396": "opy",
    "6397": " empt",
    "6398": "onna",
    "6399": " Ram",
    "6400": " somewhat",
    "6401": " Div",
    "6402": "86",
    "6403": "press",
    "6404": " nav",
    "6405": " favour",
    "6406": "power",
    "6407": " promise",
    "6408": " DC",
    "6409": " Boy",
    "6410": " laugh",
    "6411": "ena",
    "6412": "Pol",
    "6413": " Rights",
    "6414": " holds",
    "6415": " opposite",
    "6416": "ocket",
    "6417": "Ñ",
    "6418": " moments",
    "6419": "west",
    "6420": " hat",
    "6421": "tering",
    "6422": " opponent",
    "6423": " bug",
    "6424": " Far",
    "6425": "cho",
    "6426": " campus",
    "6427": " acts",
    "6428": " rum",
    "6429": "etroit",
    "6430": " versions",
    "6431": " motion",
    "6432": " metal",
    "6433": "hips",
    "6434": " evolution",
    "6435": "ometimes",
    "6436": " vice",
    "6437": "anish",
    "6438": " relevant",
    "6439": " sees",
    "6440": " Image",
    "6441": " bag",
    "6442": " industrial",
    "6443": " zero",
    "6444": "IR",
    "6445": " sick",
    "6446": " downt",
    "6447": "oma",
    "6448": " closely",
    "6449": " Ann",
    "6450": "hetic",
    "6451": " emotional",
    "6452": "chen",
    "6453": "game",
    "6454": "IF",
    "6455": " YouTube",
    "6456": " Year",
    "6457": "va",
    "6458": " fewer",
    "6459": " division",
    "6460": "olve",
    "6461": " adm",
    "6462": " harder",
    "6463": " customer",
    "6464": " hoping",
    "6465": "ologist",
    "6466": " tom",
    "6467": " Brook",
    "6468": "Donald",
    "6469": "En",
    "6470": " Valley",
    "6471": " hur",
    "6472": " Gra",
    "6473": " mechanism",
    "6474": "ittle",
    "6475": "ml",
    "6476": " Houston",
    "6477": " Elect",
    "6478": "inem",
    "6479": " returns",
    "6480": "NC",
    "6481": "atell",
    "6482": " volunte",
    "6483": " participants",
    "6484": " extent",
    "6485": " intention",
    "6486": "po",
    "6487": "alian",
    "6488": "esc",
    "6489": "ellect",
    "6490": " excellent",
    "6491": " Soviet",
    "6492": " acknowled",
    "6493": " syn",
    "6494": "ulous",
    "6495": "oming",
    "6496": " Mot",
    "6497": " batt",
    "6498": " Games",
    "6499": " squad",
    "6500": "greg",
    "6501": " circumstances",
    "6502": "pan",
    "6503": " fashion",
    "6504": " isol",
    "6505": "Ã¼",
    "6506": "otal",
    "6507": " immediate",
    "6508": " Eric",
    "6509": " suffering",
    "6510": " Watch",
    "6511": "str",
    "6512": " lies",
    "6513": " tiny",
    "6514": " authors",
    "6515": " 38",
    "6516": " grown",
    "6517": " Gar",
    "6518": "iger",
    "6519": "efully",
    "6520": " immigrants",
    "6521": "Ã",
    "6522": "print",
    "6523": "ora",
    "6524": " kinds",
    "6525": "utch",
    "6526": " 49",
    "6527": " Die",
    "6528": " cheap",
    "6529": " mine",
    "6530": " detailed",
    "6531": "ordan",
    "6532": " Hel",
    "6533": "name",
    "6534": " featured",
    "6535": " Wik",
    "6536": " Er",
    "6537": " Sar",
    "6538": "ayers",
    "6539": " meat",
    "6540": " unus",
    "6541": " Aut",
    "6542": " competitive",
    "6543": " describe",
    "6544": " formed",
    "6545": " Home",
    "6546": " IP",
    "6547": "friend",
    "6548": "nic",
    "6549": "certain",
    "6550": " carrying",
    "6551": " tournament",
    "6552": " termin",
    "6553": " trick",
    "6554": " relationships",
    "6555": " fundamental",
    "6556": "kel",
    "6557": " wave",
    "6558": " cycle",
    "6559": "obb",
    "6560": " crazy",
    "6561": " Cy",
    "6562": " signing",
    "6563": " Way",
    "6564": " guide",
    "6565": " wins",
    "6566": " Catholic",
    "6567": " earned",
    "6568": " decline",
    "6569": "08",
    "6570": " regional",
    "6571": "nam",
    "6572": "ensus",
    "6573": "style",
    "6574": " embr",
    "6575": " strange",
    "6576": " Palestinian",
    "6577": " Jesus",
    "6578": " Long",
    "6579": " ancient",
    "6580": " frequently",
    "6581": "06",
    "6582": " acting",
    "6583": " Putin",
    "6584": " manner",
    "6585": " efficient",
    "6586": "rome",
    "6587": " pushing",
    "6588": " CIA",
    "6589": " comfortable",
    "6590": " Card",
    "6591": " pip",
    "6592": "ORE",
    "6593": "Per",
    "6594": " sharing",
    "6595": " wire",
    "6596": " skill",
    "6597": " Econom",
    "6598": "ockey",
    "6599": "chers",
    "6600": " instru",
    "6601": " Ell",
    "6602": " owned",
    "6603": "bar",
    "6604": " commitment",
    "6605": " alongside",
    "6606": " OF",
    "6607": "uated",
    "6608": "anes",
    "6609": " Lord",
    "6610": "09",
    "6611": " Davis",
    "6612": "rison",
    "6613": " controversial",
    "6614": " artists",
    "6615": " referred",
    "6616": "weight",
    "6617": " egg",
    "6618": " mouth",
    "6619": " repeatedly",
    "6620": " 48",
    "6621": " Top",
    "6622": "ï¿",
    "6623": " 34",
    "6624": "FP",
    "6625": "awa",
    "6626": " attempted",
    "6627": " femin",
    "6628": "umber",
    "6629": " updated",
    "6630": "foot",
    "6631": " cert",
    "6632": "ua",
    "6633": " pregn",
    "6634": " Old",
    "6635": " schedule",
    "6636": "vin",
    "6637": "xy",
    "6638": " PS",
    "6639": "amily",
    "6640": "adel",
    "6641": " dedicated",
    "6642": "Ð½",
    "6643": " AL",
    "6644": " sentence",
    "6645": " upcoming",
    "6646": " Right",
    "6647": " NY",
    "6648": " Down",
    "6649": " Di",
    "6650": " column",
    "6651": "hus",
    "6652": " depth",
    "6653": " pled",
    "6654": " virtual",
    "6655": "uable",
    "6656": " journey",
    "6657": " struck",
    "6658": "Ñ",
    "6659": " desk",
    "6660": " studio",
    "6661": " realized",
    "6662": " Energy",
    "6663": "Despite",
    "6664": "ceived",
    "6665": "%)",
    "6666": "ographic",
    "6667": "ko",
    "6668": "ugh",
    "6669": " medic",
    "6670": "DS",
    "6671": " serving",
    "6672": "iami",
    "6673": " walked",
    "6674": "rive",
    "6675": "iveness",
    "6676": " king",
    "6677": " ring",
    "6678": " reput",
    "6679": "you",
    "6680": " urban",
    "6681": "phy",
    "6682": "07",
    "6683": " Cle",
    "6684": " Charles",
    "6685": " Wild",
    "6686": " targeted",
    "6687": " channel",
    "6688": " assets",
    "6689": "luding",
    "6690": " tort",
    "6691": " inspired",
    "6692": " hotel",
    "6693": " Arizona",
    "6694": " posts",
    "6695": " newslet",
    "6696": "Like",
    "6697": "Two",
    "6698": " Supp",
    "6699": " universe",
    "6700": " agenda",
    "6701": " causing",
    "6702": " watched",
    "6703": " suicide",
    "6704": " stream",
    "6705": " overwhel",
    "6706": " Py",
    "6707": " usual",
    "6708": " surveillance",
    "6709": " Men",
    "6710": " intent",
    "6711": "sole",
    "6712": "People",
    "6713": " liqu",
    "6714": " sister",
    "6715": " opponents",
    "6716": " chairman",
    "6717": " du",
    "6718": " Wars",
    "6719": " Cruz",
    "6720": " mainstream",
    "6721": "gor",
    "6722": "bel",
    "6723": " latter",
    "6724": " hall",
    "6725": " surrounding",
    "6726": " folks",
    "6727": " knowing",
    "6728": " orders",
    "6729": " Inf",
    "6730": " remote",
    "6731": " 75",
    "6732": " sand",
    "6733": " literally",
    "6734": " Java",
    "6735": " observed",
    "6736": " Again",
    "6737": " subsid",
    "6738": "Fr",
    "6739": " Defense",
    "6740": " infl",
    "6741": " approval",
    "6742": "acc",
    "6743": " Van",
    "6744": "iments",
    "6745": " basket",
    "6746": "rence",
    "6747": "burg",
    "6748": " teachers",
    "6749": "azi",
    "6750": "avor",
    "6751": "izz",
    "6752": " winter",
    "6753": "iciency",
    "6754": "alle",
    "6755": " exciting",
    "6756": "aze",
    "6757": "iro",
    "6758": "aylor",
    "6759": " Tal",
    "6760": " format",
    "6761": "boy",
    "6762": " congress",
    "6763": " protected",
    "6764": "ati",
    "6765": " noticed",
    "6766": " simpl",
    "6767": " dealing",
    "6768": " Young",
    "6769": "rations",
    "6770": " Child",
    "6771": " precise",
    "6772": "67",
    "6773": "xual",
    "6774": " deeply",
    "6775": "ipl",
    "6776": " communication",
    "6777": " gang",
    "6778": " sending",
    "6779": " forth",
    "6780": " Jr",
    "6781": " fasc",
    "6782": " battery",
    "6783": " wal",
    "6784": "mun",
    "6785": " sky",
    "6786": " narr",
    "6787": " fixed",
    "6788": "post",
    "6789": "abis",
    "6790": " aside",
    "6791": " requirements",
    "6792": "Int",
    "6793": " properties",
    "6794": "rors",
    "6795": " alive",
    "6796": " narrow",
    "6797": " wake",
    "6798": "allas",
    "6799": " passion",
    "6800": " Arch",
    "6801": "onymous",
    "6802": " eating",
    "6803": "Or",
    "6804": "ensity",
    "6805": " mistake",
    "6806": "woman",
    "6807": " explore",
    "6808": " coffee",
    "6809": " Pan",
    "6810": " 1970",
    "6811": " rape",
    "6812": " volume",
    "6813": " promised",
    "6814": " diet",
    "6815": "acking",
    "6816": " risks",
    "6817": " exhib",
    "6818": " Polit",
    "6819": " Fort",
    "6820": " sweet",
    "6821": "May",
    "6822": "â.",
    "6823": " Enter",
    "6824": " Wat",
    "6825": " neut",
    "6826": " involving",
    "6827": " wage",
    "6828": " selection",
    "6829": " Max",
    "6830": " tested",
    "6831": "ether",
    "6832": " flu",
    "6833": "ulture",
    "6834": " defeat",
    "6835": " northern",
    "6836": " reward",
    "6837": " welcome",
    "6838": " Cast",
    "6839": " extended",
    "6840": " puts",
    "6841": " territory",
    "6842": " phenomen",
    "6843": " unemploy",
    "6844": " refugees",
    "6845": " sample",
    "6846": " height",
    "6847": " approximately",
    "6848": " Kevin",
    "6849": "59",
    "6850": " blame",
    "6851": " Brad",
    "6852": " anyway",
    "6853": "ums",
    "6854": " Detroit",
    "6855": " destroyed",
    "6856": "obile",
    "6857": "ta",
    "6858": " impressive",
    "6859": " Stephen",
    "6860": "asks",
    "6861": " god",
    "6862": " proof",
    "6863": " gap",
    "6864": " dry",
    "6865": "ï¿½",
    "6866": " crash",
    "6867": " unknown",
    "6868": " locations",
    "6869": "04",
    "6870": "igg",
    "6871": " selected",
    "6872": "apse",
    "6873": " west",
    "6874": "anges",
    "6875": "gery",
    "6876": "stone",
    "6877": " Fil",
    "6878": " attacked",
    "6879": " maximum",
    "6880": " Miller",
    "6881": " Wilson",
    "6882": " Tit",
    "6883": " promote",
    "6884": " shel",
    "6885": "aser",
    "6886": " merely",
    "6887": " franchise",
    "6888": "arry",
    "6889": "lv",
    "6890": " requests",
    "6891": " sho",
    "6892": " retire",
    "6893": " suddenly",
    "6894": " slowly",
    "6895": " protesters",
    "6896": " disag",
    "6897": "dro",
    "6898": " teacher",
    "6899": "ixt",
    "6900": " typical",
    "6901": "ogan",
    "6902": " Women",
    "6903": " Ins",
    "6904": "ingu",
    "6905": " conver",
    "6906": "list",
    "6907": " chose",
    "6908": " Camer",
    "6909": " Class",
    "6910": " Lu",
    "6911": " matches",
    "6912": " prote",
    "6913": " license",
    "6914": " properly",
    "6915": " assume",
    "6916": "oration",
    "6917": " discover",
    "6918": "03",
    "6919": " wid",
    "6920": " PR",
    "6921": " Mic",
    "6922": "Rel",
    "6923": " worried",
    "6924": " moder",
    "6925": "fire",
    "6926": " abortion",
    "6927": "owered",
    "6928": " allies",
    "6929": "ao",
    "6930": " oblig",
    "6931": " terrorism",
    "6932": "02",
    "6933": " supports",
    "6934": " Î",
    "6935": "uilding",
    "6936": "ÃÃ",
    "6937": "inson",
    "6938": "verty",
    "6939": " arguments",
    "6940": " adapt",
    "6941": " theme",
    "6942": " confront",
    "6943": " facilities",
    "6944": " sustain",
    "6945": "gender",
    "6946": " east",
    "6947": " pal",
    "6948": " recognize",
    "6949": "igure",
    "6950": " fuck",
    "6951": "ÃÃÃÃ",
    "6952": "lies",
    "6953": " equival",
    "6954": "mo",
    "6955": " obtained",
    "6956": " poverty",
    "6957": " rub",
    "6958": " Italy",
    "6959": " nomine",
    "6960": " deals",
    "6961": " fees",
    "6962": "alo",
    "6963": "itarian",
    "6964": "osis",
    "6965": " Hollywood",
    "6966": " understood",
    "6967": " controlled",
    "6968": "VER",
    "6969": " Best",
    "6970": " Dam",
    "6971": " topic",
    "6972": " critics",
    "6973": " Society",
    "6974": " Agency",
    "6975": "axy",
    "6976": " Ford",
    "6977": " sole",
    "6978": " Jersey",
    "6979": "arity",
    "6980": " village",
    "6981": " diagn",
    "6982": " Administ",
    "6983": "raid",
    "6984": "68",
    "6985": " likes",
    "6986": "celer",
    "6987": "han",
    "6988": "sters",
    "6989": " Four",
    "6990": " evil",
    "6991": "Te",
    "6992": " punish",
    "6993": " dress",
    "6994": "cript",
    "6995": " ped",
    "6996": " Georgia",
    "6997": " bunch",
    "6998": " Company",
    "6999": " journalists",
    "7000": "John",
    "7001": " exposed",
    "7002": " regions",
    "7003": "redit",
    "7004": "ocation",
    "7005": " scheme",
    "7006": " communications",
    "7007": " transp",
    "7008": " stim",
    "7009": " limits",
    "7010": " somehow",
    "7011": " strongly",
    "7012": " honor",
    "7013": " drag",
    "7014": " resistance",
    "7015": "lls",
    "7016": "aire",
    "7017": "aug",
    "7018": " champion",
    "7019": " Labor",
    "7020": " constant",
    "7021": " phase",
    "7022": " NASA",
    "7023": "asts",
    "7024": " Carl",
    "7025": "pool",
    "7026": " profit",
    "7027": " truck",
    "7028": " condem",
    "7029": " escape",
    "7030": " personally",
    "7031": " Night",
    "7032": " Dun",
    "7033": "rimination",
    "7034": " Land",
    "7035": " bid",
    "7036": " NHL",
    "7037": " Stand",
    "7038": " vacc",
    "7039": " deck",
    "7040": "CA",
    "7041": "nesota",
    "7042": "iform",
    "7043": " falling",
    "7044": "GBT",
    "7045": " Network",
    "7046": " somewhere",
    "7047": "ems",
    "7048": "cers",
    "7049": " employee",
    "7050": " harass",
    "7051": "ads",
    "7052": " bear",
    "7053": " CD",
    "7054": "iner",
    "7055": " comparison",
    "7056": "orted",
    "7057": "ciples",
    "7058": " polls",
    "7059": "owa",
    "7060": " inqu",
    "7061": " Love",
    "7062": "pected",
    "7063": " southern",
    "7064": "oric",
    "7065": " decent",
    "7066": "cow",
    "7067": " Spanish",
    "7068": " encourage",
    "7069": " emissions",
    "7070": " 39",
    "7071": " Kn",
    "7072": " View",
    "7073": "enders",
    "7074": " empty",
    "7075": " Miami",
    "7076": " hits",
    "7077": "oster",
    "7078": " Cam",
    "7079": " definition",
    "7080": "57",
    "7081": " pic",
    "7082": "wan",
    "7083": " directed",
    "7084": "pes",
    "7085": " flex",
    "7086": "zens",
    "7087": " Ok",
    "7088": " meetings",
    "7089": " End",
    "7090": " Bell",
    "7091": "Ð¾Ð",
    "7092": " comprom",
    "7093": " winner",
    "7094": "intend",
    "7095": "icken",
    "7096": " gotten",
    "7097": " Daniel",
    "7098": " Turk",
    "7099": " electricity",
    "7100": "aun",
    "7101": " chosen",
    "7102": " officially",
    "7103": " bench",
    "7104": " stretch",
    "7105": " database",
    "7106": "Com",
    "7107": " Despite",
    "7108": " intellect",
    "7109": " spin",
    "7110": "igation",
    "7111": " stronger",
    "7112": " deleg",
    "7113": " purposes",
    "7114": " DNA",
    "7115": " cutting",
    "7116": " Turn",
    "7117": " fold",
    "7118": "rary",
    "7119": " extensive",
    "7120": " amounts",
    "7121": " desper",
    "7122": " trees",
    "7123": " anx",
    "7124": " ideal",
    "7125": " Asian",
    "7126": " thread",
    "7127": " fifth",
    "7128": "",
    "7129": "UR",
    "7130": " goods",
    "7131": " colon",
    "7132": " developer",
    "7133": " claiming",
    "7134": "unning",
    "7135": "Any",
    "7136": " retain",
    "7137": " soul",
    "7138": " captured",
    "7139": " Though",
    "7140": " finds",
    "7141": " driven",
    "7142": " payments",
    "7143": "asters",
    "7144": " Jordan",
    "7145": "ras",
    "7146": "CS",
    "7147": " ties",
    "7148": " reasonable",
    "7149": " dogs",
    "7150": "â",
    "7151": " somebody",
    "7152": " ending",
    "7153": " Nations",
    "7154": " choices",
    "7155": " ble",
    "7156": " seats",
    "7157": " Services",
    "7158": " Thank",
    "7159": " pod",
    "7160": " engage",
    "7161": " drawn",
    "7162": " sight",
    "7163": "CE",
    "7164": " param",
    "7165": " Dar",
    "7166": " threatened",
    "7167": " ruled",
    "7168": "eping",
    "7169": " Attorney",
    "7170": " Irish",
    "7171": "ura",
    "7172": " Sea",
    "7173": " trading",
    "7174": "owed",
    "7175": " primarily",
    "7176": " aspects",
    "7177": " fighters",
    "7178": "ML",
    "7179": " answers",
    "7180": " perfectly",
    "7181": "irms",
    "7182": " Academ",
    "7183": " incl",
    "7184": " rival",
    "7185": " parking",
    "7186": " rejected",
    "7187": " Gall",
    "7188": " constantly",
    "7189": " Hun",
    "7190": "fast",
    "7191": " payment",
    "7192": " Cat",
    "7193": " distinct",
    "7194": " flying",
    "7195": " rig",
    "7196": " technologies",
    "7197": " Real",
    "7198": "</",
    "7199": " components",
    "7200": "Police",
    "7201": " admit",
    "7202": " Scotland",
    "7203": " elsewhere",
    "7204": " Dark",
    "7205": " constit",
    "7206": " tur",
    "7207": " anymore",
    "7208": "lder",
    "7209": " icon",
    "7210": " fields",
    "7211": " estimates",
    "7212": "EW",
    "7213": "sea",
    "7214": " solutions",
    "7215": " resulting",
    "7216": "78",
    "7217": " Bru",
    "7218": " awesome",
    "7219": " encoun",
    "7220": " province",
    "7221": "mod",
    "7222": " worldwide",
    "7223": " actor",
    "7224": " regularly",
    "7225": " Moore",
    "7226": " courts",
    "7227": " narrative",
    "7228": " Ut",
    "7229": "Once",
    "7230": " boot",
    "7231": " enemies",
    "7232": " mixed",
    "7233": "regon",
    "7234": " OS",
    "7235": " Disney",
    "7236": "sm",
    "7237": "icer",
    "7238": " houses",
    "7239": " nobody",
    "7240": " Sk",
    "7241": "inations",
    "7242": " controls",
    "7243": " Water",
    "7244": " letters",
    "7245": "ez",
    "7246": "apes",
    "7247": "agram",
    "7248": "iana",
    "7249": "imp",
    "7250": " 42",
    "7251": " murd",
    "7252": " mayor",
    "7253": " loan",
    "7254": " outcome",
    "7255": " MS",
    "7256": " contem",
    "7257": "sell",
    "7258": "Sec",
    "7259": "vy",
    "7260": "ship",
    "7261": " Light",
    "7262": "onic",
    "7263": "isan",
    "7264": " apartment",
    "7265": " Steven",
    "7266": " coalition",
    "7267": " contributed",
    "7268": " Bas",
    "7269": " tank",
    "7270": " concluded",
    "7271": " Adam",
    "7272": " exists",
    "7273": " Tw",
    "7274": " founder",
    "7275": " Brian",
    "7276": "earing",
    "7277": " Lew",
    "7278": " atmosphere",
    "7279": " profile",
    "7280": " brew",
    "7281": " Id",
    "7282": " situations",
    "7283": " Championship",
    "7284": " Author",
    "7285": "rates",
    "7286": " incredible",
    "7287": " Constitution",
    "7288": " signal",
    "7289": "otes",
    "7290": " Rog",
    "7291": "300",
    "7292": " accurate",
    "7293": " Victor",
    "7294": "otten",
    "7295": " unp",
    "7296": " Where",
    "7297": "ker",
    "7298": " Southern",
    "7299": ".\"[",
    "7300": " employment",
    "7301": " clients",
    "7302": "Dr",
    "7303": " keeps",
    "7304": " informed",
    "7305": " continuing",
    "7306": "inity",
    "7307": " baseball",
    "7308": " generate",
    "7309": " ticket",
    "7310": " conven",
    "7311": "Also",
    "7312": " Conf",
    "7313": " weird",
    "7314": " tied",
    "7315": "lock",
    "7316": "adelph",
    "7317": " category",
    "7318": " infect",
    "7319": "ilarly",
    "7320": "acked",
    "7321": " angry",
    "7322": " Organ",
    "7323": " routine",
    "7324": "aron",
    "7325": " kil",
    "7326": " raising",
    "7327": "ifer",
    "7328": " machines",
    "7329": " registered",
    "7330": " proved",
    "7331": "there",
    "7332": " demands",
    "7333": " gaming",
    "7334": " Italian",
    "7335": " incredibly",
    "7336": " crucial",
    "7337": " stuck",
    "7338": " Civil",
    "7339": " Dallas",
    "7340": "cr",
    "7341": " terrible",
    "7342": "56",
    "7343": "MP",
    "7344": " feedback",
    "7345": " upper",
    "7346": " plastic",
    "7347": " imper",
    "7348": " newly",
    "7349": " Joseph",
    "7350": " consumption",
    "7351": " dozen",
    "7352": " enthus",
    "7353": " estate",
    "7354": "ali",
    "7355": "rage",
    "7356": " innoc",
    "7357": " manip",
    "7358": " Tem",
    "7359": " conscious",
    "7360": " bills",
    "7361": " Cross",
    "7362": " Spain",
    "7363": "ifications",
    "7364": "Today",
    "7365": " writers",
    "7366": " excess",
    "7367": "inding",
    "7368": " aggressive",
    "7369": " reporter",
    "7370": " compens",
    "7371": " returning",
    "7372": " stead",
    "7373": " programming",
    "7374": " Thanks",
    "7375": " represented",
    "7376": " conclusion",
    "7377": "98",
    "7378": " rus",
    "7379": " Bowl",
    "7380": " AR",
    "7381": "MS",
    "7382": " origin",
    "7383": " assistant",
    "7384": "adelphia",
    "7385": " roster",
    "7386": " Minnesota",
    "7387": " organized",
    "7388": "ria",
    "7389": " penalty",
    "7390": "lers",
    "7391": " drinking",
    "7392": " paint",
    "7393": " satell",
    "7394": " gro",
    "7395": " Program",
    "7396": " capture",
    "7397": "ni",
    "7398": " conspir",
    "7399": " interpret",
    "7400": " explanation",
    "7401": "iscal",
    "7402": "58",
    "7403": " county",
    "7404": "iscons",
    "7405": "essed",
    "7406": "mont",
    "7407": "ima",
    "7408": " %",
    "7409": "anny",
    "7410": "gorith",
    "7411": "emen",
    "7412": "isconsin",
    "7413": " assistance",
    "7414": " Roman",
    "7415": " complaint",
    "7416": " ru",
    "7417": " nut",
    "7418": "LA",
    "7419": " magic",
    "7420": " tall",
    "7421": " Oper",
    "7422": " granted",
    "7423": "Ed",
    "7424": "Because",
    "7425": " Contin",
    "7426": "star",
    "7427": "Off",
    "7428": " Parliament",
    "7429": " complicated",
    "7430": " audio",
    "7431": " chances",
    "7432": " extract",
    "7433": "rypt",
    "7434": " Gi",
    "7435": " 1999",
    "7436": " hel",
    "7437": " Educ",
    "7438": "era",
    "7439": " shares",
    "7440": " successfully",
    "7441": "esy",
    "7442": " IT",
    "7443": "zy",
    "7444": " pilot",
    "7445": " Ep",
    "7446": " Hot",
    "7447": " myth",
    "7448": " recovery",
    "7449": " Test",
    "7450": " techniques",
    "7451": " iron",
    "7452": " Care",
    "7453": " Zeal",
    "7454": " SC",
    "7455": " scenes",
    "7456": " Fre",
    "7457": " veteran",
    "7458": " Win",
    "7459": " ($",
    "7460": " degrees",
    "7461": "actions",
    "7462": "ked",
    "7463": " sympt",
    "7464": "thew",
    "7465": " lawmakers",
    "7466": " western",
    "7467": " operate",
    "7468": " ads",
    "7469": "rating",
    "7470": " habit",
    "7471": " aimed",
    "7472": "Inst",
    "7473": "anchester",
    "7474": " phr",
    "7475": "rep",
    "7476": "rete",
    "7477": " taste",
    "7478": "idency",
    "7479": " engaged",
    "7480": " privile",
    "7481": " 55",
    "7482": " rating",
    "7483": " teaching",
    "7484": " Os",
    "7485": " academic",
    "7486": "itar",
    "7487": " therap",
    "7488": " passes",
    "7489": " dollar",
    "7490": "hent",
    "7491": " automatically",
    "7492": " Pacific",
    "7493": " monit",
    "7494": " blocks",
    "7495": "abama",
    "7496": " attended",
    "7497": " permanent",
    "7498": " survive",
    "7499": "uan",
    "7500": " anticip",
    "7501": " enable",
    "7502": " Look",
    "7503": " extrem",
    "7504": " Foreign",
    "7505": "chain",
    "7506": "%.",
    "7507": " marked",
    "7508": "itals",
    "7509": " hidden",
    "7510": " accomp",
    "7511": " titles",
    "7512": " Senator",
    "7513": " NBC",
    "7514": " taught",
    "7515": "aed",
    "7516": " Linux",
    "7517": " bom",
    "7518": " index",
    "7519": "everal",
    "7520": " elite",
    "7521": "ibilities",
    "7522": " lawyers",
    "7523": "from",
    "7524": " depending",
    "7525": " valuable",
    "7526": " installed",
    "7527": " championship",
    "7528": " root",
    "7529": " compre",
    "7530": "mal",
    "7531": " Bull",
    "7532": " downtown",
    "7533": " equivalent",
    "7534": " solve",
    "7535": "rific",
    "7536": " duty",
    "7537": " Special",
    "7538": " Business",
    "7539": " 64",
    "7540": " pace",
    "7541": "HS",
    "7542": " reputation",
    "7543": " uncertain",
    "7544": " phones",
    "7545": "uine",
    "7546": " overse",
    "7547": "bal",
    "7548": " Taylor",
    "7549": " personnel",
    "7550": " pin",
    "7551": "reams",
    "7552": "aturally",
    "7553": " sufficient",
    "7554": " visited",
    "7555": " warming",
    "7556": " principles",
    "7557": " vulnerable",
    "7558": " enjoyed",
    "7559": " fake",
    "7560": " Nick",
    "7561": " advis",
    "7562": " negotiations",
    "7563": "inder",
    "7564": " generated",
    "7565": " exposure",
    "7566": " recording",
    "7567": " collected",
    "7568": " regardless",
    "7569": " dict",
    "7570": "EA",
    "7571": " bitcoin",
    "7572": " elev",
    "7573": "ã",
    "7574": "active",
    "7575": " Kelly",
    "7576": " Anth",
    "7577": " cup",
    "7578": " patterns",
    "7579": "Getty",
    "7580": " Take",
    "7581": "))",
    "7582": " Avenue",
    "7583": " Josh",
    "7584": "bro",
    "7585": " disaster",
    "7586": " cable",
    "7587": " 65",
    "7588": " chat",
    "7589": " worker",
    "7590": " mainly",
    "7591": " racial",
    "7592": "quarters",
    "7593": " Coast",
    "7594": " Viet",
    "7595": "month",
    "7596": " pounds",
    "7597": " 150",
    "7598": " Call",
    "7599": " portion",
    "7600": " afraid",
    "7601": " inspir",
    "7602": " Ah",
    "7603": " defence",
    "7604": " bes",
    "7605": " Eastern",
    "7606": "da",
    "7607": " Tony",
    "7608": " tracks",
    "7609": " busy",
    "7610": " grant",
    "7611": " shit",
    "7612": " intense",
    "7613": " Series",
    "7614": " LGBT",
    "7615": "orne",
    "7616": " Still",
    "7617": "athy",
    "7618": " funny",
    "7619": " apolog",
    "7620": " surgery",
    "7621": " Moscow",
    "7622": "mann",
    "7623": " Coll",
    "7624": " possession",
    "7625": " prominent",
    "7626": " Mars",
    "7627": " comic",
    "7628": " Ger",
    "7629": "ashes",
    "7630": "97",
    "7631": "ules",
    "7632": " Ray",
    "7633": " thin",
    "7634": " engineering",
    "7635": " troub",
    "7636": " Kurd",
    "7637": "this",
    "7638": " processes",
    "7639": " Nation",
    "7640": "fall",
    "7641": " Kent",
    "7642": " Come",
    "7643": " entit",
    "7644": " â",
    "7645": " unusual",
    "7646": "raph",
    "7647": "etary",
    "7648": " describes",
    "7649": "Col",
    "7650": "world",
    "7651": "96",
    "7652": " resulted",
    "7653": " emerged",
    "7654": " taxp",
    "7655": " gall",
    "7656": "iler",
    "7657": " dim",
    "7658": " propag",
    "7659": " Iowa",
    "7660": " Oregon",
    "7661": " coordin",
    "7662": " corruption",
    "7663": " stations",
    "7664": " Invest",
    "7665": " fought",
    "7666": " AD",
    "7667": " brut",
    "7668": " extension",
    "7669": "ref",
    "7670": " blind",
    "7671": " adopted",
    "7672": "prise",
    "7673": "ye",
    "7674": " compete",
    "7675": " recru",
    "7676": " Zealand",
    "7677": " hadn",
    "7678": "Pr",
    "7679": " 400",
    "7680": " mail",
    "7681": " everywhere",
    "7682": " Balt",
    "7683": " crypt",
    "7684": " Hom",
    "7685": "ba",
    "7686": "Rec",
    "7687": "Mean",
    "7688": "herent",
    "7689": "icate",
    "7690": " Ali",
    "7691": " contracts",
    "7692": "front",
    "7693": " neuro",
    "7694": " Lo",
    "7695": " Dead",
    "7696": " Rick",
    "7697": " feelings",
    "7698": " firms",
    "7699": "idelines",
    "7700": "â,",
    "7701": " minority",
    "7702": " spr",
    "7703": "HA",
    "7704": "cles",
    "7705": " advertising",
    "7706": "tes",
    "7707": " rarely",
    "7708": " discipl",
    "7709": "making",
    "7710": " Northern",
    "7711": " sanctions",
    "7712": "gun",
    "7713": " Veg",
    "7714": "scape",
    "7715": " Philadelphia",
    "7716": "upid",
    "7717": " cameras",
    "7718": " explicit",
    "7719": " strict",
    "7720": "viously",
    "7721": "log",
    "7722": " enorm",
    "7723": " finance",
    "7724": " cited",
    "7725": "ifies",
    "7726": " Before",
    "7727": " shortly",
    "7728": "UL",
    "7729": " Policy",
    "7730": "olt",
    "7731": " expectations",
    "7732": " implementation",
    "7733": "ogen",
    "7734": " recip",
    "7735": "cling",
    "7736": " Greek",
    "7737": " thick",
    "7738": " thousand",
    "7739": "antic",
    "7740": " Mu",
    "7741": " loud",
    "7742": "istent",
    "7743": " affili",
    "7744": "urrent",
    "7745": "orough",
    "7746": " Navy",
    "7747": " inev",
    "7748": "rell",
    "7749": "cus",
    "7750": " photograph",
    "7751": " medium",
    "7752": "azz",
    "7753": " Wisconsin",
    "7754": " scenario",
    "7755": " Food",
    "7756": " Live",
    "7757": " sup",
    "7758": "ilton",
    "7759": " plug",
    "7760": " veget",
    "7761": " ho",
    "7762": " visible",
    "7763": "LC",
    "7764": " lights",
    "7765": " creates",
    "7766": " priority",
    "7767": " ven",
    "7768": " bridge",
    "7769": "eland",
    "7770": "inking",
    "7771": " obst",
    "7772": " agric",
    "7773": "ATE",
    "7774": " permission",
    "7775": " Foot",
    "7776": " algorith",
    "7777": "izon",
    "7778": "Co",
    "7779": "elect",
    "7780": " participate",
    "7781": "aska",
    "7782": " wing",
    "7783": "who",
    "7784": "asion",
    "7785": " browser",
    "7786": " Global",
    "7787": " tag",
    "7788": " Ol",
    "7789": " Has",
    "7790": " mel",
    "7791": " acceler",
    "7792": " dozens",
    "7793": " Kingdom",
    "7794": " historic",
    "7795": " computers",
    "7796": " laid",
    "7797": " basketball",
    "7798": " losses",
    "7799": "text",
    "7800": " Saf",
    "7801": " Ash",
    "7802": "76",
    "7803": "ogether",
    "7804": " unw",
    "7805": "::",
    "7806": " tor",
    "7807": " Amendment",
    "7808": "Mar",
    "7809": " strikes",
    "7810": " principle",
    "7811": " Development",
    "7812": " formal",
    "7813": "EP",
    "7814": "igen",
    "7815": " scoring",
    "7816": "obs",
    "7817": "athered",
    "7818": "54",
    "7819": " 44",
    "7820": " counsel",
    "7821": "found",
    "7822": "++",
    "7823": " shock",
    "7824": " wonderful",
    "7825": " SP",
    "7826": " behalf",
    "7827": "abs",
    "7828": " uncom",
    "7829": "profit",
    "7830": "52",
    "7831": "enth",
    "7832": " interface",
    "7833": " establishment",
    "7834": " toler",
    "7835": " Henry",
    "7836": " Greg",
    "7837": "amber",
    "7838": "car",
    "7839": " Major",
    "7840": " Thus",
    "7841": "Us",
    "7842": " gained",
    "7843": " fee",
    "7844": "lete",
    "7845": "she",
    "7846": " founded",
    "7847": "etime",
    "7848": " foundation",
    "7849": "jo",
    "7850": "51",
    "7851": " ESP",
    "7852": "ilipp",
    "7853": " clubs",
    "7854": " cannabis",
    "7855": " ju",
    "7856": " airport",
    "7857": " Key",
    "7858": "ystem",
    "7859": " borrow",
    "7860": "olis",
    "7861": "weet",
    "7862": "BO",
    "7863": " manufacturing",
    "7864": " rely",
    "7865": " Hit",
    "7866": "aus",
    "7867": " Pay",
    "7868": " Alabama",
    "7869": " genuine",
    "7870": " Royal",
    "7871": "rators",
    "7872": "Before",
    "7873": "uer",
    "7874": " component",
    "7875": " ridic",
    "7876": "osexual",
    "7877": " wheel",
    "7878": "rative",
    "7879": " Oak",
    "7880": " journalist",
    "7881": " relief",
    "7882": " Sn",
    "7883": " saved",
    "7884": " hole",
    "7885": " yield",
    "7886": " headed",
    "7887": " cyber",
    "7888": "Ne",
    "7889": " Moh",
    "7890": "ependent",
    "7891": " gift",
    "7892": "bell",
    "7893": " fault",
    "7894": " withdraw",
    "7895": " indicate",
    "7896": " drawing",
    "7897": " uniform",
    "7898": "umer",
    "7899": " Rand",
    "7900": " Vis",
    "7901": "arlier",
    "7902": " stable",
    "7903": " ships",
    "7904": " ->",
    "7905": " banned",
    "7906": " magn",
    "7907": " Mid",
    "7908": " footage",
    "7909": "Meanwhile",
    "7910": "rous",
    "7911": " doors",
    "7912": "lan",
    "7913": " recognized",
    "7914": " 1960",
    "7915": " containing",
    "7916": "pread",
    "7917": " FC",
    "7918": " river",
    "7919": "ami",
    "7920": " struggling",
    "7921": "Sub",
    "7922": " spark",
    "7923": " Academy",
    "7924": " walls",
    "7925": " achieved",
    "7926": "opher",
    "7927": "ounced",
    "7928": " neighb",
    "7929": "aning",
    "7930": " plate",
    "7931": " edition",
    "7932": " HT",
    "7933": "portion",
    "7934": "mate",
    "7935": " movements",
    "7936": " deliber",
    "7937": "uce",
    "7938": "teen",
    "7939": "Post",
    "7940": " sharp",
    "7941": " AS",
    "7942": " Snow",
    "7943": "ulating",
    "7944": " Three",
    "7945": " episodes",
    "7946": " neutral",
    "7947": " Premier",
    "7948": " Ret",
    "7949": " Fund",
    "7950": " exception",
    "7951": "etts",
    "7952": " producer",
    "7953": " Fred",
    "7954": " destruction",
    "7955": " 1998",
    "7956": "oured",
    "7957": " beliefs",
    "7958": " 47",
    "7959": " Review",
    "7960": " legend",
    "7961": " pump",
    "7962": " McG",
    "7963": " backed",
    "7964": "umin",
    "7965": " liked",
    "7966": " hired",
    "7967": "idespread",
    "7968": "cription",
    "7969": " roles",
    "7970": " languages",
    "7971": " profession",
    "7972": " entering",
    "7973": "========",
    "7974": "osa",
    "7975": " VR",
    "7976": " interviews",
    "7977": " hang",
    "7978": "isp",
    "7979": " Kir",
    "7980": "eman",
    "7981": " tox",
    "7982": " philosophy",
    "7983": " Administration",
    "7984": " arrange",
    "7985": "oen",
    "7986": "interest",
    "7987": " flaw",
    "7988": "Those",
    "7989": " Nob",
    "7990": "sylv",
    "7991": "imore",
    "7992": " stadium",
    "7993": " Atlanta",
    "7994": " Jac",
    "7995": " reduction",
    "7996": " dinner",
    "7997": "ca",
    "7998": "ja",
    "7999": "400",
    "8000": " bath",
    "8001": " Report",
    "8002": "iel",
    "8003": "uper",
    "8004": " Turkish",
    "8005": " aver",
    "8006": " finger",
    "8007": " Note",
    "8008": " Conference",
    "8009": " tackle",
    "8010": " cha",
    "8011": "burgh",
    "8012": " gonna",
    "8013": " Diego",
    "8014": " Point",
    "8015": " crop",
    "8016": " Centre",
    "8017": " farmers",
    "8018": " Manchester",
    "8019": " nominee",
    "8020": " 41",
    "8021": "53",
    "8022": "aching",
    "8023": " Jason",
    "8024": " barely",
    "8025": "ATO",
    "8026": " structures",
    "8027": " contained",
    "8028": " synt",
    "8029": " Ott",
    "8030": " delivery",
    "8031": " convin",
    "8032": "%,",
    "8033": " processing",
    "8034": " discrimination",
    "8035": " incent",
    "8036": "riers",
    "8037": " Fair",
    "8038": "erved",
    "8039": "RS",
    "8040": " Data",
    "8041": "then",
    "8042": " Arm",
    "8043": "abinet",
    "8044": " intellectual",
    "8045": " Radio",
    "8046": "amsung",
    "8047": " 46",
    "8048": " Bry",
    "8049": " OK",
    "8050": " Field",
    "8051": "Me",
    "8052": " Did",
    "8053": " upset",
    "8054": " Perhaps",
    "8055": " Mir",
    "8056": " Education",
    "8057": "sylvania",
    "8058": "away",
    "8059": "President",
    "8060": " challenging",
    "8061": " proven",
    "8062": " restrictions",
    "8063": "rik",
    "8064": " forever",
    "8065": "ho",
    "8066": "https",
    "8067": "olen",
    "8068": " electronic",
    "8069": " hitting",
    "8070": " Hay",
    "8071": " euro",
    "8072": " unex",
    "8073": " reviews",
    "8074": " Fed",
    "8075": " Christians",
    "8076": " 43",
    "8077": " NC",
    "8078": " convicted",
    "8079": "Star",
    "8080": " illness",
    "8081": " smooth",
    "8082": "page",
    "8083": "Dav",
    "8084": " Hor",
    "8085": " retired",
    "8086": " indicated",
    "8087": "usive",
    "8088": " producing",
    "8089": " About",
    "8090": " Harry",
    "8091": " rapidly",
    "8092": " rose",
    "8093": " hide",
    "8094": "fr",
    "8095": " corporations",
    "8096": " ocean",
    "8097": "iy",
    "8098": " Rus",
    "8099": "aying",
    "8100": "owing",
    "8101": " listening",
    "8102": " Reuters",
    "8103": " UFC",
    "8104": " Sat",
    "8105": " technique",
    "8106": " mo",
    "8107": "yard",
    "8108": "sels",
    "8109": " loyal",
    "8110": " Nic",
    "8111": "lessly",
    "8112": " robot",
    "8113": " climb",
    "8114": " notion",
    "8115": " begun",
    "8116": "87",
    "8117": " util",
    "8118": " recognition",
    "8119": " ren",
    "8120": "ouver",
    "8121": "engers",
    "8122": " perpet",
    "8123": " association",
    "8124": " milk",
    "8125": "inf",
    "8126": " asks",
    "8127": " websites",
    "8128": " description",
    "8129": " Pack",
    "8130": " tickets",
    "8131": " Pen",
    "8132": "achus",
    "8133": " flash",
    "8134": " bra",
    "8135": " suggesting",
    "8136": "enny",
    "8137": " Judge",
    "8138": " exclusive",
    "8139": " reaching",
    "8140": " prepare",
    "8141": "iti",
    "8142": " Kansas",
    "8143": "Who",
    "8144": "ione",
    "8145": " bail",
    "8146": " frag",
    "8147": " progressive",
    "8148": " burd",
    "8149": " exceed",
    "8150": " equally",
    "8151": " Hard",
    "8152": " hardly",
    "8153": " widespread",
    "8154": " ABC",
    "8155": " campaigns",
    "8156": " Mayor",
    "8157": " contribute",
    "8158": "udes",
    "8159": "ologists",
    "8160": " branch",
    "8161": "Look",
    "8162": " Rose",
    "8163": " grass",
    "8164": " initiative",
    "8165": " Market",
    "8166": " ethnic",
    "8167": " external",
    "8168": "ikes",
    "8169": " Circ",
    "8170": "uma",
    "8171": "rient",
    "8172": " sensitive",
    "8173": " practical",
    "8174": "usted",
    "8175": "elf",
    "8176": " unclear",
    "8177": " normally",
    "8178": "Ref",
    "8179": " representative",
    "8180": "pat",
    "8181": "ls",
    "8182": "89",
    "8183": "thon",
    "8184": " welf",
    "8185": " Full",
    "8186": " reducing",
    "8187": "appy",
    "8188": " friendly",
    "8189": "bec",
    "8190": " carefully",
    "8191": " Arabia",
    "8192": " Ref",
    "8193": "lad",
    "8194": "ester",
    "8195": " Ly",
    "8196": "PM",
    "8197": " Luc",
    "8198": " racist",
    "8199": " invent",
    "8200": "rical",
    "8201": "ouch",
    "8202": "PG",
    "8203": " CO",
    "8204": " Next",
    "8205": " respectively",
    "8206": "senal",
    "8207": "rator",
    "8208": " tail",
    "8209": "imm",
    "8210": " McCain",
    "8211": " Bernie",
    "8212": "ancouver",
    "8213": " overwhelming",
    "8214": " viewers",
    "8215": " Beach",
    "8216": "stract",
    "8217": " welfare",
    "8218": "arrass",
    "8219": " Further",
    "8220": " convinced",
    "8221": "UN",
    "8222": " smoke",
    "8223": "umes",
    "8224": " collapse",
    "8225": " involvement",
    "8226": " Lind",
    "8227": " thrown",
    "8228": "pload",
    "8229": " connections",
    "8230": "heast",
    "8231": " terrorists",
    "8232": " Battle",
    "8233": " strategic",
    "8234": " hook",
    "8235": " Latin",
    "8236": " 00",
    "8237": " recover",
    "8238": "omething",
    "8239": "igrant",
    "8240": " Ont",
    "8241": " wine",
    "8242": "Mc",
    "8243": "inois",
    "8244": " Music",
    "8245": "rolled",
    "8246": " minds",
    "8247": " vital",
    "8248": " settlement",
    "8249": " statistics",
    "8250": " lists",
    "8251": " vary",
    "8252": " Sir",
    "8253": " featuring",
    "8254": " ESPN",
    "8255": "ecut",
    "8256": " Dig",
    "8257": "achusetts",
    "8258": " behaviour",
    "8259": " independence",
    "8260": "worth",
    "8261": " fantasy",
    "8262": " devast",
    "8263": "nedy",
    "8264": "core",
    "8265": "uties",
    "8266": " invited",
    "8267": " complaints",
    "8268": " joining",
    "8269": " scores",
    "8270": "dem",
    "8271": " fiscal",
    "8272": " deeper",
    "8273": "abil",
    "8274": " Pennsylvania",
    "8275": "ifest",
    "8276": " steal",
    "8277": " anger",
    "8278": " deputy",
    "8279": " elig",
    "8280": "________________",
    "8281": " wars",
    "8282": " Square",
    "8283": " Tenn",
    "8284": " investigate",
    "8285": " Town",
    "8286": " sugar",
    "8287": " constitutional",
    "8288": " III",
    "8289": " scholars",
    "8290": " Pit",
    "8291": " iOS",
    "8292": " anybody",
    "8293": " subjects",
    "8294": " AND",
    "8295": " array",
    "8296": " alien",
    "8297": "FA",
    "8298": " Ult",
    "8299": " Gov",
    "8300": " lobby",
    "8301": " ownership",
    "8302": " framework",
    "8303": " unemployment",
    "8304": " Division",
    "8305": " transgender",
    "8306": "bn",
    "8307": " improvements",
    "8308": " SS",
    "8309": " menu",
    "8310": " peak",
    "8311": "Back",
    "8312": " screens",
    "8313": "ihad",
    "8314": " inject",
    "8315": " luck",
    "8316": "iversary",
    "8317": " define",
    "8318": " tasks",
    "8319": " Xbox",
    "8320": " democratic",
    "8321": " scandal",
    "8322": "icking",
    "8323": " jury",
    "8324": "acon",
    "8325": " Anton",
    "8326": "Che",
    "8327": " Ministry",
    "8328": " cos",
    "8329": " Es",
    "8330": " comprehens",
    "8331": "osit",
    "8332": " Kat",
    "8333": " remem",
    "8334": " discovery",
    "8335": "unior",
    "8336": " register",
    "8337": " casual",
    "8338": " citizen",
    "8339": "RI",
    "8340": " fab",
    "8341": "Under",
    "8342": "een",
    "8343": " roads",
    "8344": " disagree",
    "8345": " failing",
    "8346": " Never",
    "8347": " Little",
    "8348": " Jay",
    "8349": " dynamic",
    "8350": " serves",
    "8351": " Cameron",
    "8352": " Brother",
    "8353": " Mah",
    "8354": " testim",
    "8355": " gathered",
    "8356": " Stone",
    "8357": " Information",
    "8358": "Sm",
    "8359": " soph",
    "8360": "oding",
    "8361": " implemented",
    "8362": " controversy",
    "8363": " collective",
    "8364": " trained",
    "8365": "anna",
    "8366": " NSA",
    "8367": " neighbour",
    "8368": " fears",
    "8369": "leveland",
    "8370": " samples",
    "8371": " fiction",
    "8372": " prosec",
    "8373": "agg",
    "8374": " estimate",
    "8375": " Community",
    "8376": "69",
    "8377": " Ice",
    "8378": " Medical",
    "8379": " 1997",
    "8380": " Philipp",
    "8381": " referring",
    "8382": " tip",
    "8383": " captain",
    "8384": "Will",
    "8385": " 1996",
    "8386": " spaces",
    "8387": "cific",
    "8388": " Walker",
    "8389": " versus",
    "8390": " legs",
    "8391": "'.",
    "8392": " Santa",
    "8393": " temporary",
    "8394": "PC",
    "8395": " noise",
    "8396": " HD",
    "8397": " overt",
    "8398": " incorpor",
    "8399": " tone",
    "8400": " visitors",
    "8401": " reven",
    "8402": " civilians",
    "8403": " wages",
    "8404": " hypot",
    "8405": " sin",
    "8406": " remarks",
    "8407": " awareness",
    "8408": " ON",
    "8409": " Spring",
    "8410": " recommended",
    "8411": " stupid",
    "8412": " Allen",
    "8413": " heading",
    "8414": " handful",
    "8415": " regulation",
    "8416": "icket",
    "8417": " Action",
    "8418": " Core",
    "8419": " platforms",
    "8420": " accus",
    "8421": " Anthony",
    "8422": " affairs",
    "8423": " touchdown",
    "8424": " rural",
    "8425": " attacking",
    "8426": "gener",
    "8427": " extend",
    "8428": " ultimate",
    "8429": " attached",
    "8430": " Vegas",
    "8431": " discussions",
    "8432": " Ren",
    "8433": " horse",
    "8434": " Brew",
    "8435": "mad",
    "8436": " reprodu",
    "8437": " genetic",
    "8438": " expanded",
    "8439": " attempting",
    "8440": "phones",
    "8441": " Matthew",
    "8442": " races",
    "8443": "including",
    "8444": "iry",
    "8445": " Queen",
    "8446": " raw",
    "8447": " ignore",
    "8448": " Columbia",
    "8449": "serv",
    "8450": " Pent",
    "8451": " Guardian",
    "8452": "hour",
    "8453": " Cook",
    "8454": " iP",
    "8455": "itionally",
    "8456": " gear",
    "8457": "........",
    "8458": " symptoms",
    "8459": " Patrick",
    "8460": " suffer",
    "8461": " settings",
    "8462": " Make",
    "8463": "alling",
    "8464": " salary",
    "8465": "case",
    "8466": " licens",
    "8467": "mary",
    "8468": "GO",
    "8469": " tweeted",
    "8470": "angel",
    "8471": " publication",
    "8472": " brill",
    "8473": " factory",
    "8474": " suspected",
    "8475": " purchased",
    "8476": "aret",
    "8477": " intervention",
    "8478": " eastern",
    "8479": " holiday",
    "8480": "type",
    "8481": "2014",
    "8482": " theat",
    "8483": "esh",
    "8484": "About",
    "8485": " displ",
    "8486": " ranked",
    "8487": " Budd",
    "8488": " neck",
    "8489": " Austin",
    "8490": " Conservative",
    "8491": "ââââ",
    "8492": " Museum",
    "8493": "ective",
    "8494": " Roy",
    "8495": "\")",
    "8496": " cro",
    "8497": " enormous",
    "8498": "Sen",
    "8499": "intendo",
    "8500": " cogn",
    "8501": " logic",
    "8502": "ultural",
    "8503": "ictions",
    "8504": " improvement",
    "8505": " API",
    "8506": " viewed",
    "8507": " ingred",
    "8508": " entertainment",
    "8509": "Ass",
    "8510": " legitimate",
    "8511": " Professor",
    "8512": "ommod",
    "8513": " presum",
    "8514": " Albert",
    "8515": " Massachusetts",
    "8516": " Ball",
    "8517": " 2019",
    "8518": " www",
    "8519": "News",
    "8520": " actors",
    "8521": " substantial",
    "8522": " humanity",
    "8523": " involves",
    "8524": " resource",
    "8525": "arms",
    "8526": " brothers",
    "8527": " liquid",
    "8528": " rational",
    "8529": " seemingly",
    "8530": " sorry",
    "8531": " layer",
    "8532": " loans",
    "8533": " rook",
    "8534": " investigating",
    "8535": " absence",
    "8536": " providers",
    "8537": " tomorrow",
    "8538": " fallen",
    "8539": " bureau",
    "8540": " grounds",
    "8541": " coaches",
    "8542": " stake",
    "8543": " resign",
    "8544": " outs",
    "8545": "rec",
    "8546": " advocates",
    "8547": " â¬",
    "8548": "RC",
    "8549": " investigators",
    "8550": " conspiracy",
    "8551": "Where",
    "8552": " medicine",
    "8553": " dramatic",
    "8554": " fulf",
    "8555": " monitor",
    "8556": " Chair",
    "8557": "EST",
    "8558": "repre",
    "8559": " overs",
    "8560": " chapter",
    "8561": " Season",
    "8562": " coc",
    "8563": "oval",
    "8564": "GE",
    "8565": "lah",
    "8566": " Ho",
    "8567": ".-",
    "8568": " activist",
    "8569": "plete",
    "8570": "ped",
    "8571": " boat",
    "8572": " Check",
    "8573": "aka",
    "8574": " Control",
    "8575": " jur",
    "8576": " suspended",
    "8577": " papers",
    "8578": "Script",
    "8579": " Greece",
    "8580": " opinions",
    "8581": " Such",
    "8582": " Ross",
    "8583": " missile",
    "8584": " Golden",
    "8585": " celeb",
    "8586": " Revolution",
    "8587": "2016",
    "8588": " stayed",
    "8589": " covers",
    "8590": " Ra",
    "8591": " Head",
    "8592": "iverpool",
    "8593": " diversity",
    "8594": "otype",
    "8595": " bars",
    "8596": "Part",
    "8597": " gam",
    "8598": "Russ",
    "8599": " embarrass",
    "8600": "xit",
    "8601": " offices",
    "8602": " Acc",
    "8603": "rets",
    "8604": "ourse",
    "8605": "claim",
    "8606": " Pot",
    "8607": "hot",
    "8608": " Iranian",
    "8609": "ammed",
    "8610": " disrupt",
    "8611": "cover",
    "8612": " WW",
    "8613": " preced",
    "8614": " poly",
    "8615": " forest",
    "8616": "wered",
    "8617": " careful",
    "8618": "mat",
    "8619": "reprene",
    "8620": "vard",
    "8621": " amid",
    "8622": " History",
    "8623": "79",
    "8624": " Hospital",
    "8625": "isting",
    "8626": " Ale",
    "8627": " authent",
    "8628": "quest",
    "8629": " Illinois",
    "8630": " CBS",
    "8631": " Sony",
    "8632": "uction",
    "8633": " ham",
    "8634": "geon",
    "8635": "Related",
    "8636": "dit",
    "8637": " Ap",
    "8638": "72",
    "8639": "rine",
    "8640": " transportation",
    "8641": " Vancouver",
    "8642": " Gaza",
    "8643": " handed",
    "8644": "74",
    "8645": " protocol",
    "8646": " consistently",
    "8647": " mountain",
    "8648": " 52",
    "8649": " reads",
    "8650": " Stat",
    "8651": " pref",
    "8652": " clothes",
    "8653": " attitude",
    "8654": "iability",
    "8655": " Share",
    "8656": " Kennedy",
    "8657": " porn",
    "8658": " princip",
    "8659": " Freedom",
    "8660": " depends",
    "8661": " mining",
    "8662": " petition",
    "8663": " noting",
    "8664": " warrant",
    "8665": "des",
    "8666": " conce",
    "8667": " colors",
    "8668": " lowest",
    "8669": " Anderson",
    "8670": " Tri",
    "8671": " addressed",
    "8672": " Family",
    "8673": "bi",
    "8674": "unes",
    "8675": " entr",
    "8676": "Ste",
    "8677": " Stadium",
    "8678": "xx",
    "8679": " throwing",
    "8680": " je",
    "8681": " fruit",
    "8682": " virtually",
    "8683": "####",
    "8684": " stone",
    "8685": " foss",
    "8686": " Mean",
    "8687": " guarantee",
    "8688": "!)",
    "8689": " referend",
    "8690": "Both",
    "8691": "??",
    "8692": " speaks",
    "8693": " Baltimore",
    "8694": "inch",
    "8695": " steel",
    "8696": " closing",
    "8697": " reader",
    "8698": "dri",
    "8699": "FF",
    "8700": " buff",
    "8701": " personality",
    "8702": " appreciate",
    "8703": " Cre",
    "8704": " Iraqi",
    "8705": " surf",
    "8706": " Environment",
    "8707": " nerv",
    "8708": "iences",
    "8709": "maker",
    "8710": " km",
    "8711": "keep",
    "8712": " handling",
    "8713": " profits",
    "8714": "ordon",
    "8715": " grav",
    "8716": " marks",
    "8717": "low",
    "8718": " tries",
    "8719": " Broad",
    "8720": " contributions",
    "8721": " Engine",
    "8722": "ropri",
    "8723": "zed",
    "8724": " spiritual",
    "8725": " conversations",
    "8726": " fantastic",
    "8727": " Tro",
    "8728": " lands",
    "8729": " console",
    "8730": "ila",
    "8731": " horror",
    "8732": "ppers",
    "8733": "\".[",
    "8734": "icity",
    "8735": " gains",
    "8736": " covering",
    "8737": " tea",
    "8738": "ivals",
    "8739": " Harris",
    "8740": "Her",
    "8741": " hint",
    "8742": " astron",
    "8743": "aval",
    "8744": " shoulder",
    "8745": "scale",
    "8746": " wrest",
    "8747": " guest",
    "8748": " Ext",
    "8749": " accommod",
    "8750": "uted",
    "8751": " _",
    "8752": "uits",
    "8753": " depression",
    "8754": " CA",
    "8755": " Lewis",
    "8756": " lucky",
    "8757": " Bang",
    "8758": " encouraged",
    "8759": "flix",
    "8760": "amac",
    "8761": " judges",
    "8762": " incidents",
    "8763": " Cleveland",
    "8764": " drew",
    "8765": " subsequent",
    "8766": "ira",
    "8767": " spoken",
    "8768": " Howard",
    "8769": "annels",
    "8770": " Bad",
    "8771": " brown",
    "8772": " bacter",
    "8773": "Please",
    "8774": "ixed",
    "8775": " rhet",
    "8776": " ranks",
    "8777": " Getty",
    "8778": " photograp",
    "8779": " inflation",
    "8780": " inner",
    "8781": " Intelligence",
    "8782": " Po",
    "8783": "itting",
    "8784": " Ba",
    "8785": " maps",
    "8786": "abeth",
    "8787": " Patri",
    "8788": "ported",
    "8789": "ijing",
    "8790": "plate",
    "8791": " divided",
    "8792": " 1995",
    "8793": " NATO",
    "8794": " paralle",
    "8795": " drama",
    "8796": " Mexican",
    "8797": " distributed",
    "8798": " gal",
    "8799": " innovation",
    "8800": " swing",
    "8801": "unicip",
    "8802": " cust",
    "8803": " Unfortunately",
    "8804": " premium",
    "8805": " voter",
    "8806": " permit",
    "8807": " revel",
    "8808": " Kong",
    "8809": " trem",
    "8810": " dance",
    "8811": " clim",
    "8812": "pled",
    "8813": " Las",
    "8814": " efficiency",
    "8815": " promises",
    "8816": " Indeed",
    "8817": "Note",
    "8818": "eding",
    "8819": " CH",
    "8820": " Which",
    "8821": " ballot",
    "8822": " 51",
    "8823": "pie",
    "8824": " Adv",
    "8825": " temperatures",
    "8826": " Samsung",
    "8827": " portray",
    "8828": " spokesperson",
    "8829": " locked",
    "8830": " lying",
    "8831": " improving",
    "8832": " threw",
    "8833": " joy",
    "8834": " dump",
    "8835": "Art",
    "8836": " musical",
    "8837": "PP",
    "8838": " mistakes",
    "8839": "dated",
    "8840": " shout",
    "8841": " Start",
    "8842": " homeless",
    "8843": "conf",
    "8844": " replacement",
    "8845": "eries",
    "8846": " comedy",
    "8847": " checks",
    "8848": " Without",
    "8849": " Moon",
    "8850": " instrument",
    "8851": "ounce",
    "8852": " Connect",
    "8853": " acknowledged",
    "8854": " barrel",
    "8855": " responses",
    "8856": " protecting",
    "8857": "backs",
    "8858": " Det",
    "8859": "Â",
    "8860": " silver",
    "8861": " copies",
    "8862": "heim",
    "8863": " les",
    "8864": " AC",
    "8865": " dad",
    "8866": " breaks",
    "8867": " Plus",
    "8868": " Buff",
    "8869": " commonly",
    "8870": " lets",
    "8871": " legacy",
    "8872": "itage",
    "8873": " protein",
    "8874": " mathem",
    "8875": " joke",
    "8876": "amacare",
    "8877": "erted",
    "8878": "hop",
    "8879": "arre",
    "8880": " passengers",
    "8881": "2015",
    "8882": " yellow",
    "8883": " Marvel",
    "8884": " naturally",
    "8885": "Your",
    "8886": " Scient",
    "8887": " nomination",
    "8888": "Source",
    "8889": " measured",
    "8890": "aping",
    "8891": "oded",
    "8892": "alia",
    "8893": " Use",
    "8894": " abandoned",
    "8895": " mad",
    "8896": "800",
    "8897": " Prince",
    "8898": " studied",
    "8899": " Football",
    "8900": "helsea",
    "8901": " diverse",
    "8902": "argo",
    "8903": " acquired",
    "8904": "ieties",
    "8905": " Lyn",
    "8906": "Cons",
    "8907": "esty",
    "8908": " soil",
    "8909": " Marsh",
    "8910": " demonstrated",
    "8911": " blast",
    "8912": " rear",
    "8913": " funded",
    "8914": " headquarters",
    "8915": "hesis",
    "8916": "yo",
    "8917": " stolen",
    "8918": " scan",
    "8919": " counts",
    "8920": " tape",
    "8921": " partnership",
    "8922": " midfield",
    "8923": " NOT",
    "8924": " (â",
    "8925": " upgrade",
    "8926": " Cost",
    "8927": " Atlantic",
    "8928": "yer",
    "8929": " march",
    "8930": " ordinary",
    "8931": " Aud",
    "8932": " Nev",
    "8933": " rom",
    "8934": "aware",
    "8935": " literature",
    "8936": " plain",
    "8937": " stages",
    "8938": " â¢",
    "8939": " assert",
    "8940": " 1994",
    "8941": "high",
    "8942": " AI",
    "8943": " helpful",
    "8944": " arrive",
    "8945": " exit",
    "8946": " scope",
    "8947": " falls",
    "8948": "63",
    "8949": "dog",
    "8950": " ignored",
    "8951": "BM",
    "8952": " twenty",
    "8953": "eters",
    "8954": " Master",
    "8955": " clock",
    "8956": " compe",
    "8957": "inction",
    "8958": " virus",
    "8959": " Trib",
    "8960": " referendum",
    "8961": " inequ",
    "8962": " unions",
    "8963": " Does",
    "8964": "assador",
    "8965": " Gun",
    "8966": " conservatives",
    "8967": " rif",
    "8968": " grid",
    "8969": " symp",
    "8970": " festival",
    "8971": " fro",
    "8972": " shopping",
    "8973": " waters",
    "8974": " Pop",
    "8975": " capabilities",
    "8976": " Bron",
    "8977": " ax",
    "8978": "lahoma",
    "8979": " usage",
    "8980": " Hind",
    "8981": "iate",
    "8982": "zing",
    "8983": " Empire",
    "8984": "aeda",
    "8985": " Abb",
    "8986": "ington",
    "8987": " Indiana",
    "8988": "iley",
    "8989": " transactions",
    "8990": "erg",
    "8991": " hoped",
    "8992": " distract",
    "8993": " Ast",
    "8994": " guitar",
    "8995": "VE",
    "8996": " Eag",
    "8997": " sty",
    "8998": " ramp",
    "8999": " assessment",
    "9000": "ctic",
    "9001": " universities",
    "9002": " Dave",
    "9003": " moon",
    "9004": " monitoring",
    "9005": "ormal",
    "9006": "acket",
    "9007": "bridge",
    "9008": " representing",
    "9009": "Facebook",
    "9010": " ratio",
    "9011": " Death",
    "9012": "encing",
    "9013": "ught",
    "9014": "62",
    "9015": " Prov",
    "9016": " conventional",
    "9017": "comes",
    "9018": "UST",
    "9019": "orge",
    "9020": " trave",
    "9021": " Set",
    "9022": " tracking",
    "9023": "door",
    "9024": "ntil",
    "9025": " Sometimes",
    "9026": "61",
    "9027": "only",
    "9028": "shire",
    "9029": " hung",
    "9030": " Sus",
    "9031": " reliable",
    "9032": " tie",
    "9033": " proposals",
    "9034": " skept",
    "9035": " Hell",
    "9036": " replied",
    "9037": " Ros",
    "9038": "fund",
    "9039": "uh",
    "9040": " criticized",
    "9041": " appearances",
    "9042": "rimin",
    "9043": " Ha",
    "9044": "ecutive",
    "9045": "ela",
    "9046": " racism",
    "9047": " insisted",
    "9048": "organ",
    "9049": " introduction",
    "9050": " 2020",
    "9051": " appointed",
    "9052": "dney",
    "9053": " Bureau",
    "9054": "olph",
    "9055": "agic",
    "9056": " Pass",
    "9057": "cut",
    "9058": "Ke",
    "9059": " Line",
    "9060": " beauty",
    "9061": " concrete",
    "9062": " receiver",
    "9063": " supplies",
    "9064": " performing",
    "9065": "made",
    "9066": "ji",
    "9067": " bub",
    "9068": " exch",
    "9069": "rite",
    "9070": " visiting",
    "9071": " Technology",
    "9072": " Denver",
    "9073": "ocument",
    "9074": "EE",
    "9075": "omes",
    "9076": " Capt",
    "9077": "theless",
    "9078": "RL",
    "9079": " letting",
    "9080": "AND",
    "9081": " deficit",
    "9082": " classified",
    "9083": " Galaxy",
    "9084": " auto",
    "9085": "HT",
    "9086": " render",
    "9087": " absor",
    "9088": " Orig",
    "9089": " swim",
    "9090": " accomplish",
    "9091": " programme",
    "9092": " presidency",
    "9093": "crib",
    "9094": " blocked",
    "9095": " Sweden",
    "9096": "archy",
    "9097": " dust",
    "9098": " Utah",
    "9099": " drove",
    "9100": " landscape",
    "9101": " cance",
    "9102": " Portland",
    "9103": "plus",
    "9104": " dismissed",
    "9105": " LA",
    "9106": " hyper",
    "9107": " abroad",
    "9108": " bonus",
    "9109": " Jam",
    "9110": " Tour",
    "9111": "har",
    "9112": " sequence",
    "9113": " predicted",
    "9114": " senator",
    "9115": "Â°",
    "9116": " Age",
    "9117": " domain",
    "9118": " Code",
    "9119": " ec",
    "9120": " museum",
    "9121": " warn",
    "9122": " Associated",
    "9123": "acco",
    "9124": " persons",
    "9125": "NS",
    "9126": " dub",
    "9127": "iano",
    "9128": "aga",
    "9129": " requested",
    "9130": " trigger",
    "9131": " Ontario",
    "9132": " hockey",
    "9133": " Corpor",
    "9134": " artific",
    "9135": " dates",
    "9136": " testimony",
    "9137": " centers",
    "9138": "Ð»",
    "9139": " rocket",
    "9140": "irts",
    "9141": " ves",
    "9142": " transit",
    "9143": " congressional",
    "9144": " entitled",
    "9145": "ultane",
    "9146": " spokeswoman",
    "9147": " Front",
    "9148": " Nintendo",
    "9149": " Alexander",
    "9150": " rescue",
    "9151": " Cooper",
    "9152": "mony",
    "9153": " assign",
    "9154": " Bon",
    "9155": " equality",
    "9156": " patch",
    "9157": " urged",
    "9158": " bread",
    "9159": " Olympic",
    "9160": " documentary",
    "9161": " veterans",
    "9162": " clar",
    "9163": "fol",
    "9164": "93",
    "9165": "ais",
    "9166": "king",
    "9167": " â",
    "9168": "pton",
    "9169": " recall",
    "9170": " populations",
    "9171": "94",
    "9172": " Low",
    "9173": " breath",
    "9174": "Still",
    "9175": "92",
    "9176": "rooms",
    "9177": " whenever",
    "9178": " violation",
    "9179": " tactics",
    "9180": " wider",
    "9181": "71",
    "9182": "ounding",
    "9183": " Kar",
    "9184": " targeting",
    "9185": "Yet",
    "9186": "through",
    "9187": " pursue",
    "9188": " salt",
    "9189": "\">",
    "9190": "Are",
    "9191": "izabeth",
    "9192": " firing",
    "9193": "don",
    "9194": " Mill",
    "9195": " acid",
    "9196": " mole",
    "9197": "inating",
    "9198": " restaurants",
    "9199": " compare",
    "9200": "fare",
    "9201": "73",
    "9202": "Comp",
    "9203": "orous",
    "9204": "ennis",
    "9205": " wedd",
    "9206": " employed",
    "9207": " Roberts",
    "9208": " contrad",
    "9209": " Bible",
    "9210": " politically",
    "9211": " phrase",
    "9212": " satellite",
    "9213": " Cro",
    "9214": " survival",
    "9215": " retirement",
    "9216": " banking",
    "9217": " Form",
    "9218": " brilliant",
    "9219": "isons",
    "9220": " Girl",
    "9221": "atar",
    "9222": " channels",
    "9223": " servers",
    "9224": " Beijing",
    "9225": " soccer",
    "9226": "trans",
    "9227": "aver",
    "9228": " Mach",
    "9229": "they",
    "9230": " introduce",
    "9231": " Justin",
    "9232": " experiments",
    "9233": "enez",
    "9234": " prisoners",
    "9235": "rapped",
    "9236": " cig",
    "9237": " WH",
    "9238": "afe",
    "9239": "jud",
    "9240": "600",
    "9241": " fighter",
    "9242": " scientist",
    "9243": "OK",
    "9244": " YOU",
    "9245": "usalem",
    "9246": " List",
    "9247": " submit",
    "9248": " approached",
    "9249": " Award",
    "9250": " monthly",
    "9251": " Liverpool",
    "9252": " designs",
    "9253": " representatives",
    "9254": " titled",
    "9255": "ordinary",
    "9256": " quote",
    "9257": " popularity",
    "9258": "olves",
    "9259": " abilities",
    "9260": "oenix",
    "9261": " cul",
    "9262": " PD",
    "9263": " membership",
    "9264": " investigations",
    "9265": " focusing",
    "9266": "mans",
    "9267": " hosp",
    "9268": " bab",
    "9269": " Bridge",
    "9270": "Though",
    "9271": " Maryland",
    "9272": " saving",
    "9273": "pa",
    "9274": " rush",
    "9275": " Governor",
    "9276": " shadow",
    "9277": "ouri",
    "9278": "bow",
    "9279": " Hur",
    "9280": "********",
    "9281": " Base",
    "9282": " objective",
    "9283": "berry",
    "9284": " Ted",
    "9285": "emed",
    "9286": "erts",
    "9287": "ederation",
    "9288": " mit",
    "9289": " prepar",
    "9290": " tips",
    "9291": " Was",
    "9292": " pipeline",
    "9293": "David",
    "9294": " childhood",
    "9295": "ika",
    "9296": " ratings",
    "9297": " thorough",
    "9298": " entreprene",
    "9299": "enter",
    "9300": " Vill",
    "9301": " Dutch",
    "9302": "was",
    "9303": "break",
    "9304": " actively",
    "9305": " Harvard",
    "9306": " pig",
    "9307": " Som",
    "9308": " demanding",
    "9309": " loose",
    "9310": "asty",
    "9311": " Bra",
    "9312": " unexpected",
    "9313": "CO",
    "9314": " smoking",
    "9315": " smell",
    "9316": " deny",
    "9317": " universal",
    "9318": " forecast",
    "9319": " argues",
    "9320": " phenomenon",
    "9321": " overseas",
    "9322": "mers",
    "9323": "olds",
    "9324": " settled",
    "9325": "walk",
    "9326": " Beck",
    "9327": " generations",
    "9328": " weekly",
    "9329": " chicken",
    "9330": " preparing",
    "9331": " 95",
    "9332": " smartphone",
    "9333": " producers",
    "9334": " butt",
    "9335": " PA",
    "9336": " legislative",
    "9337": " anxiety",
    "9338": " disturb",
    "9339": " Have",
    "9340": " innocent",
    "9341": "minute",
    "9342": " Click",
    "9343": " mortg",
    "9344": " celebrate",
    "9345": "Dem",
    "9346": " Ur",
    "9347": "iki",
    "9348": " provision",
    "9349": " DO",
    "9350": " keys",
    "9351": "ded",
[...]
